{
  "version": "1.0",
  "truncation": null,
  "padding": {
    "strategy": "BatchLongest",
    "direction": "Right",
    "pad_to_multiple_of": null,
    "pad_id": 0,
    "pad_type_id": 0,
    "pad_token": "<PAD>"
  },
  "added_tokens": [
    {
      "id": 0,
      "content": "<PAD>",
      "single_word": false,
      "lstrip": false,
      "rstrip": false,
      "normalized": false,
      "special": true
    },
    {
      "id": 1,
      "content": "<BOS>",
      "single_word": false,
      "lstrip": false,
      "rstrip": false,
      "normalized": false,
      "special": true
    },
    {
      "id": 2,
      "content": "<EOS>",
      "single_word": false,
      "lstrip": false,
      "rstrip": false,
      "normalized": false,
      "special": true
    },
    {
      "id": 3,
      "content": "<UNK>",
      "single_word": false,
      "lstrip": false,
      "rstrip": false,
      "normalized": false,
      "special": true
    }
  ],
  "normalizer": null,
  "pre_tokenizer": {
    "type": "Whitespace"
  },
  "post_processor": {
    "type": "TemplateProcessing",
    "single": [
      {
        "SpecialToken": {
          "id": "<BOS>",
          "type_id": 0
        }
      },
      {
        "Sequence": {
          "id": "A",
          "type_id": 0
        }
      },
      {
        "SpecialToken": {
          "id": "<EOS>",
          "type_id": 0
        }
      }
    ],
    "pair": [
      {
        "Sequence": {
          "id": "A",
          "type_id": 0
        }
      },
      {
        "Sequence": {
          "id": "B",
          "type_id": 1
        }
      }
    ],
    "special_tokens": {
      "<BOS>": {
        "id": "<BOS>",
        "ids": [
          1
        ],
        "tokens": [
          "<BOS>"
        ]
      },
      "<EOS>": {
        "id": "<EOS>",
        "ids": [
          2
        ],
        "tokens": [
          "<EOS>"
        ]
      }
    }
  },
  "decoder": null,
  "model": {
    "type": "BPE",
    "dropout": null,
    "unk_token": "<UNK>",
    "continuing_subword_prefix": "",
    "end_of_word_suffix": null,
    "fuse_unk": false,
    "byte_fallback": false,
    "ignore_merges": false,
    "vocab": {
      "<PAD>": 0,
      "<BOS>": 1,
      "<EOS>": 2,
      "<UNK>": 3,
      "!": 4,
      "\"": 5,
      "#": 6,
      "$": 7,
      "%": 8,
      "&": 9,
      "'": 10,
      "(": 11,
      ")": 12,
      "*": 13,
      "+": 14,
      ",": 15,
      "-": 16,
      ".": 17,
      "/": 18,
      "0": 19,
      "1": 20,
      "2": 21,
      "3": 22,
      "4": 23,
      "5": 24,
      "6": 25,
      "7": 26,
      "8": 27,
      "9": 28,
      ":": 29,
      ";": 30,
      "<": 31,
      "=": 32,
      ">": 33,
      "?": 34,
      "@": 35,
      "A": 36,
      "B": 37,
      "C": 38,
      "D": 39,
      "E": 40,
      "F": 41,
      "G": 42,
      "H": 43,
      "I": 44,
      "J": 45,
      "K": 46,
      "L": 47,
      "M": 48,
      "N": 49,
      "O": 50,
      "P": 51,
      "Q": 52,
      "R": 53,
      "S": 54,
      "T": 55,
      "U": 56,
      "V": 57,
      "W": 58,
      "X": 59,
      "Y": 60,
      "Z": 61,
      "[": 62,
      "\\": 63,
      "]": 64,
      "_": 65,
      "`": 66,
      "a": 67,
      "b": 68,
      "c": 69,
      "d": 70,
      "e": 71,
      "f": 72,
      "g": 73,
      "h": 74,
      "i": 75,
      "j": 76,
      "k": 77,
      "l": 78,
      "m": 79,
      "n": 80,
      "o": 81,
      "p": 82,
      "q": 83,
      "r": 84,
      "s": 85,
      "t": 86,
      "u": 87,
      "v": 88,
      "w": 89,
      "x": 90,
      "y": 91,
      "z": 92,
      "{": 93,
      "|": 94,
      "}": 95,
      "~": 96,
      "": 97,
      "¡": 98,
      "¢": 99,
      "£": 100,
      "§": 101,
      "«": 102,
      "­": 103,
      "°": 104,
      "´": 105,
      "·": 106,
      "»": 107,
      "¿": 108,
      "É": 109,
      "ß": 110,
      "à": 111,
      "á": 112,
      "â": 113,
      "è": 114,
      "é": 115,
      "ê": 116,
      "í": 117,
      "ï": 118,
      "ñ": 119,
      "ó": 120,
      "ö": 121,
      "ú": 122,
      "ā": 123,
      "İ": 124,
      "œ": 125,
      "ɪ": 126,
      "ʏ": 127,
      "ʙ": 128,
      "ʜ": 129,
      "і": 130,
      "ғ": 131,
      "ᴀ": 132,
      "ᴄ": 133,
      "ᴅ": 134,
      "ᴇ": 135,
      "ᴏ": 136,
      "ᴛ": 137,
      "ᴜ": 138,
      "ᴡ": 139,
      "ᴢ": 140,
      "​": 141,
      "‌": 142,
      "‎": 143,
      "‐": 144,
      "‑": 145,
      "–": 146,
      "—": 147,
      "―": 148,
      "‘": 149,
      "’": 150,
      "‚": 151,
      "“": 152,
      "”": 153,
      "„": 154,
      "…": 155,
      "‪": 156,
      "€": 157,
      "™": 158,
      "−": 159,
      "─": 160,
      "❤": 161,
      "。": 162,
      "一": 163,
      "了": 164,
      "些": 165,
      "他": 166,
      "但": 167,
      "保": 168,
      "個": 169,
      "們": 170,
      "兒": 171,
      "兩": 172,
      "分": 173,
      "到": 174,
      "剛": 175,
      "又": 176,
      "和": 177,
      "在": 178,
      "天": 179,
      "奮": 180,
      "她": 181,
      "己": 182,
      "巴": 183,
      "度": 184,
      "很": 185,
      "恩": 186,
      "應": 187,
      "把": 188,
      "整": 189,
      "是": 190,
      "時": 191,
      "會": 192,
      "獨": 193,
      "玉": 194,
      "田": 195,
      "留": 196,
      "當": 197,
      "的": 198,
      "童": 199,
      "答": 200,
      "米": 201,
      "給": 202,
      "自": 203,
      "興": 204,
      "艾": 205,
      "莉": 206,
      "裡": 207,
      "這": 208,
      "過": 209,
      "難": 210,
      "高": 211,
      "": 212,
      "": 213,
      "️": 214,
      "﻿": 215,
      "，": 216,
      "�": 217,
      "🌴": 218,
      "🍌": 219,
      "🎓": 220,
      "🤩": 221,
      "he": 222,
      "an": 223,
      "the": 224,
      "ed": 225,
      "to": 226,
      "and": 227,
      "in": 228,
      "re": 229,
      "it": 230,
      "wa": 231,
      "ou": 232,
      "en": 233,
      "ha": 234,
      "The": 235,
      "er": 236,
      "was": 237,
      "ay": 238,
      "om": 239,
      "is": 240,
      "ar": 241,
      "on": 242,
      "im": 243,
      "sa": 244,
      "id": 245,
      "ll": 246,
      "le": 247,
      "ing": 248,
      "end": 249,
      "st": 250,
      "ot": 251,
      "am": 252,
      "or": 253,
      "ir": 254,
      "of": 255,
      "ne": 256,
      "They": 257,
      "pl": 258,
      "ig": 259,
      "at": 260,
      "He": 261,
      "be": 262,
      "il": 263,
      "lo": 264,
      "all": 265,
      "ri": 266,
      "ver": 267,
      "his": 268,
      "day": 269,
      "ut": 270,
      "play": 271,
      "said": 272,
      "Tim": 273,
      "ith": 274,
      "se": 275,
      "with": 276,
      "pp": 277,
      "her": 278,
      "ked": 279,
      "ow": 280,
      "ce": 281,
      "un": 282,
      "ke": 283,
      "She": 284,
      "hat": 285,
      "ld": 286,
      "th": 287,
      "big": 288,
      "you": 289,
      "ex": 290,
      "very": 291,
      "ted": 292,
      "ve": 293,
      "li": 294,
      "ck": 295,
      "we": 296,
      "happ": 297,
      "riend": 298,
      "friend": 299,
      "up": 300,
      "ily": 301,
      "they": 302,
      "had": 303,
      "ad": 304,
      "oft": 305,
      "not": 306,
      "wan": 307,
      "ge": 308,
      "ext": 309,
      "itt": 310,
      "<|": 311,
      "|>": 312,
      "endoft": 313,
      "endoftext": 314,
      "ome": 315,
      "ther": 316,
      "do": 317,
      "nd": 318,
      "bo": 319,
      "al": 320,
      "happy": 321,
      "ch": 322,
      "Lily": 323,
      "ent": 324,
      "for": 325,
      "that": 326,
      "saw": 327,
      "she": 328,
      "One": 329,
      "ould": 330,
      "mom": 331,
      "ittle": 332,
      "little": 333,
      "ime": 334,
      "as": 335,
      "Tom": 336,
      "so": 337,
      "time": 338,
      "ro": 339,
      "fe": 340,
      "nam": 341,
      ".\"": 342,
      "ound": 343,
      "es": 344,
      "there": 345,
      "oo": 346,
      "named": 347,
      "sm": 348,
      "were": 349,
      "It": 350,
      "wanted": 351,
      "but": 352,
      "friends": 353,
      "ved": 354,
      "!\"": 355,
      "ht": 356,
      "ird": 357,
      "sh": 358,
      "ry": 359,
      "are": 360,
      "bird": 361,
      "too": 362,
      "ra": 363,
      "On": 364,
      "my": 365,
      "out": 366,
      "ug": 367,
      "ake": 368,
      "ide": 369,
      "lp": 370,
      "ter": 371,
      "went": 372,
      "Once": 373,
      "car": 374,
      "loo": 375,
      "ue": 376,
      "help": 377,
      "upon": 378,
      "thing": 379,
      "ind": 380,
      "fun": 381,
      "toy": 382,
      "ill": 383,
      "ame": 384,
      "did": 385,
      "ly": 386,
      "gether": 387,
      "pe": 388,
      "ur": 389,
      "way": 390,
      "some": 391,
      "one": 392,
      "cat": 393,
      "me": 394,
      "together": 395,
      "ore": 396,
      "tre": 397,
      "ack": 398,
      "ag": 399,
      "new": 400,
      "can": 401,
      "dog": 402,
      "came": 403,
      "could": 404,
      "ood": 405,
      "their": 406,
      "ball": 407,
      "ic": 408,
      "par": 409,
      "gir": 410,
      "played": 411,
      "him": 412,
      "But": 413,
      "?\"": 414,
      "girl": 415,
      "go": 416,
      "fu": 417,
      "ho": 418,
      "man": 419,
      "them": 420,
      "hen": 421,
      "um": 422,
      "ax": 423,
      "sad": 424,
      "Sue": 425,
      "rom": 426,
      "boy": 427,
      "have": 428,
      "tree": 429,
      "Max": 430,
      "loved": 431,
      "looked": 432,
      "oug": 433,
      "hed": 434,
      "found": 435,
      "star": 436,
      "ab": 437,
      "side": 438,
      "other": 439,
      "back": 440,
      "Ben": 441,
      "la": 442,
      "lt": 443,
      "park": 444,
      "like": 445,
      "ain": 446,
      "Sam": 447,
      "ful": 448,
      "own": 449,
      "de": 450,
      "op": 451,
      "pr": 452,
      "et": 453,
      "ong": 454,
      "ight": 455,
      "no": 456,
      "pot": 457,
      "fa": 458,
      "ran": 459,
      "liked": 460,
      "would": 461,
      "sto": 462,
      "co": 463,
      "make": 464,
      "felt": 465,
      "You": 466,
      "see": 467,
      "now": 468,
      "want": 469,
      "asked": 470,
      "ouse": 471,
      "ard": 472,
      "started": 473,
      "ca": 474,
      "ought": 475,
      "iled": 476,
      "ice": 477,
      "good": 478,
      "small": 479,
      "wor": 480,
      "smiled": 481,
      "more": 482,
      "say": 483,
      "ried": 484,
      "mad": 485,
      "scar": 486,
      "red": 487,
      "gr": 488,
      "Spot": 489,
      "put": 490,
      "king": 491,
      "find": 492,
      "Mom": 493,
      "home": 494,
      "ty": 495,
      "away": 496,
      "what": 497,
      "something": 498,
      "from": 499,
      "made": 500,
      "uc": 501,
      "thought": 502,
      "ened": 503,
      "sha": 504,
      "playing": 505,
      "ia": 506,
      "wal": 507,
      "every": 508,
      "ach": 509,
      "mu": 510,
      "arn": 511,
      "Mia": 512,
      "ile": 513,
      "box": 514,
      "again": 515,
      "house": 516,
      "laug": 517,
      "ret": 518,
      "down": 519,
      "use": 520,
      "took": 521,
      "scared": 522,
      "learn": 523,
      "ny": 524,
      "ure": 525,
      "toys": 526,
      "get": 527,
      "ss": 528,
      "will": 529,
      "got": 530,
      "dd": 531,
      "around": 532,
      "things": 533,
      "ish": 534,
      "your": 535,
      "oud": 536,
      "lived": 537,
      "el": 538,
      "ick": 539,
      "low": 540,
      "lot": 541,
      "ave": 542,
      "pec": 543,
      "then": 544,
      "sun": 545,
      "ep": 546,
      "So": 547,
      "der": 548,
      ",\"": 549,
      "when": 550,
      "ob": 551,
      "pped": 552,
      "ie": 553,
      "na": 554,
      "bot": 555,
      "ru": 556,
      "Luc": 557,
      "Lucy": 558,
      "if": 559,
      "te": 560,
      "ant": 561,
      "room": 562,
      "tried": 563,
      "know": 564,
      "says": 565,
      "ump": 566,
      "ited": 567,
      "who": 568,
      "any": 569,
      "many": 570,
      "pic": 571,
      "about": 572,
      "us": 573,
      "care": 574,
      "pret": 575,
      "dec": 576,
      "We": 577,
      "by": 578,
      "knew": 579,
      "ous": 580,
      "ise": 581,
      "ally": 582,
      "pu": 583,
      "ist": 584,
      "ways": 585,
      "qu": 586,
      "learned": 587,
      "water": 588,
      "ate": 589,
      "ank": 590,
      "And": 591,
      "fter": 592,
      "became": 593,
      "best": 594,
      "ive": 595,
      "ust": 596,
      "gre": 597,
      "nex": 598,
      "long": 599,
      "bl": 600,
      "exc": 601,
      "cause": 602,
      "outside": 603,
      "laughed": 604,
      "mo": 605,
      "look": 606,
      "always": 607,
      "here": 608,
      "decid": 609,
      "show": 610,
      "eat": 611,
      "ite": 612,
      "decided": 613,
      "because": 614,
      "fore": 615,
      "cl": 616,
      "into": 617,
      "po": 618,
      "cle": 619,
      "ang": 620,
      "Let": 621,
      "jump": 622,
      "both": 623,
      "Then": 624,
      "run": 625,
      "hug": 626,
      "dad": 627,
      "ers": 628,
      "ma": 629,
      "ok": 630,
      "An": 631,
      "fast": 632,
      "sur": 633,
      "clo": 634,
      "When": 635,
      "this": 636,
      "excited": 637,
      "nice": 638,
      "feel": 639,
      "Yes": 640,
      "wh": 641,
      "sor": 642,
      "bb": 643,
      "pa": 644,
      "old": 645,
      "bu": 646,
      "ink": 647,
      "told": 648,
      "sk": 649,
      "come": 650,
      "Bob": 651,
      "br": 652,
      "inside": 653,
      "fish": 654,
      "surpr": 655,
      "His": 656,
      "iny": 657,
      "ook": 658,
      "pretty": 659,
      "fly": 660,
      "ara": 661,
      "gave": 662,
      "take": 663,
      "ta": 664,
      "our": 665,
      "let": 666,
      "each": 667,
      "jo": 668,
      "much": 669,
      "its": 670,
      "how": 671,
      "Anna": 672,
      "lew": 673,
      "under": 674,
      "imal": 675,
      "animal": 676,
      "Amy": 677,
      "udd": 678,
      "need": 679,
      "than": 680,
      "ven": 681,
      "able": 682,
      "flow": 683,
      "ac": 684,
      "As": 685,
      "sorry": 686,
      "har": 687,
      "sw": 688,
      "ell": 689,
      "uck": 690,
      "Can": 691,
      "Th": 692,
      "Sara": 693,
      "ged": 694,
      "ised": 695,
      "rock": 696,
      "dre": 697,
      "Thank": 698,
      "walked": 699,
      "urt": 700,
      "bear": 701,
      "read": 702,
      "hand": 703,
      "lea": 704,
      "urn": 705,
      "kind": 706,
      "rain": 707,
      "try": 708,
      "just": 709,
      "happened": 710,
      "str": 711,
      "Her": 712,
      "list": 713,
      "food": 714,
      "bet": 715,
      "didn": 716,
      "igh": 717,
      "fi": 718,
      "war": 719,
      "animals": 720,
      "spec": 721,
      "In": 722,
      "wat": 723,
      "near": 724,
      "sky": 725,
      "ine": 726,
      "cre": 727,
      "ving": 728,
      "bug": 729,
      "From": 730,
      "idea": 731,
      "better": 732,
      "heard": 733,
      "never": 734,
      "ket": 735,
      "che": 736,
      "tw": 737,
      "bro": 738,
      "bed": 739,
      "pla": 740,
      "ff": 741,
      "tal": 742,
      "love": 743,
      "nt": 744,
      "sp": 745,
      "careful": 746,
      "ber": 747,
      "share": 748,
      "tow": 749,
      "col": 750,
      "ial": 751,
      "flew": 752,
      "anymore": 753,
      "com": 754,
      "special": 755,
      "ion": 756,
      "lots": 757,
      "lf": 758,
      "per": 759,
      "where": 760,
      "don": 761,
      "wind": 762,
      "give": 763,
      "book": 764,
      "Every": 765,
      "safe": 766,
      "lad": 767,
      "clean": 768,
      "That": 769,
      "ground": 770,
      "even": 771,
      "ople": 772,
      "mag": 773,
      "over": 774,
      "cake": 775,
      "ass": 776,
      "shiny": 777,
      "udden": 778,
      "turn": 779,
      "fam": 780,
      "bad": 781,
      "after": 782,
      "Do": 783,
      "people": 784,
      "uddenly": 785,
      "proud": 786,
      "ever": 787,
      "rabb": 788,
      "door": 789,
      "surprised": 790,
      "high": 791,
      "hurt": 792,
      "pected": 793,
      "gard": 794,
      "garden": 795,
      "opened": 796,
      "picked": 797,
      "loud": 798,
      "clim": 799,
      "far": 800,
      "nexpected": 801,
      "unexpected": 802,
      "fo": 803,
      "bea": 804,
      "hard": 805,
      "app": 806,
      "What": 807,
      "place": 808,
      "unt": 809,
      "color": 810,
      "thanked": 811,
      "blue": 812,
      "still": 813,
      "ear": 814,
      "hugged": 815,
      "ct": 816,
      "call": 817,
      "No": 818,
      "off": 819,
      "mor": 820,
      "ough": 821,
      "magic": 822,
      "ummy": 823,
      "Wh": 824,
      "jumped": 825,
      "Jo": 826,
      "should": 827,
      "family": 828,
      "kid": 829,
      "walk": 830,
      "ool": 831,
      "smile": 832,
      "squ": 833,
      "rog": 834,
      "cha": 835,
      "imp": 836,
      "rel": 837,
      "uff": 838,
      "great": 839,
      "Suddenly": 840,
      "bra": 841,
      "stay": 842,
      "strong": 843,
      "ark": 844,
      "forest": 845,
      "tru": 846,
      "dan": 847,
      "itty": 848,
      "sl": 849,
      "ble": 850,
      "frog": 851,
      "until": 852,
      "beaut": 853,
      "Sally": 854,
      "stick": 855,
      "dy": 856,
      "boat": 857,
      "ort": 858,
      "ning": 859,
      "ess": 860,
      "next": 861,
      "ture": 862,
      "lease": 863,
      "This": 864,
      "Kitty": 865,
      "After": 866,
      "pt": 867,
      "happily": 868,
      "listen": 869,
      "ched": 870,
      "kids": 871,
      "beauti": 872,
      "beautiful": 873,
      "sed": 874,
      "helped": 875,
      "yes": 876,
      "showed": 877,
      "while": 878,
      "story": 879,
      "unny": 880,
      "town": 881,
      "cu": 882,
      "keep": 883,
      "At": 884,
      "picture": 885,
      "ree": 886,
      "ste": 887,
      "lly": 888,
      "being": 889,
      "ak": 890,
      "met": 891,
      "everyone": 892,
      "ip": 893,
      "raw": 894,
      "called": 895,
      "les": 896,
      "stopped": 897,
      "game": 898,
      "Now": 899,
      "Fin": 900,
      "sing": 901,
      "angry": 902,
      "joy": 903,
      "soft": 904,
      "uffy": 905,
      "open": 906,
      "ane": 907,
      "truck": 908,
      "luffy": 909,
      "cry": 910,
      "yummy": 911,
      "lost": 912,
      "Jack": 913,
      "vent": 914,
      "warm": 915,
      "ild": 916,
      "ask": 917,
      "brave": 918,
      "work": 919,
      "mouse": 920,
      "ond": 921,
      "won": 922,
      "ished": 923,
      "watch": 924,
      "couldn": 925,
      "doll": 926,
      "flower": 927,
      "leave": 928,
      "face": 929,
      "also": 930,
      "fell": 931,
      "flowers": 932,
      "green": 933,
      "mon": 934,
      "llo": 935,
      "two": 936,
      "laugh": 937,
      "less": 938,
      "lock": 939,
      "gan": 940,
      "Look": 941,
      "noise": 942,
      "irst": 943,
      "owl": 944,
      "right": 945,
      "store": 946,
      "cream": 947,
      "soon": 948,
      "self": 949,
      "top": 950,
      "ser": 951,
      "hole": 952,
      "slide": 953,
      "Hi": 954,
      "Fluffy": 955,
      "iz": 956,
      "sat": 957,
      "before": 958,
      "irrel": 959,
      "key": 960,
      "ung": 961,
      "ired": 962,
      "illy": 963,
      "race": 964,
      "hear": 965,
      "table": 966,
      "kept": 967,
      "yard": 968,
      "nodd": 969,
      "squirrel": 970,
      "tor": 971,
      "nodded": 972,
      "used": 973,
      "expl": 974,
      "swing": 975,
      "birds": 976,
      "vo": 977,
      "rabbit": 978,
      "pain": 979,
      "having": 980,
      "hands": 981,
      "mber": 982,
      "set": 983,
      "going": 984,
      "tr": 985,
      "looking": 986,
      "Don": 987,
      "funny": 988,
      "rest": 989,
      "head": 990,
      "aybe": 991,
      "uch": 992,
      "catch": 993,
      "ught": 994,
      "fin": 995,
      "shed": 996,
      "yell": 997,
      "think": 998,
      "leep": 999,
      "fix": 1000,
      "lled": 1001,
      "tired": 1002,
      "sn": 1003,
      "ting": 1004,
      "bunny": 1005,
      "ama": 1006,
      "wr": 1007,
      "ries": 1008,
      "night": 1009,
      "thr": 1010,
      "kit": 1011,
      "tell": 1012,
      "sound": 1013,
      "member": 1014,
      "has": 1015,
      "mean": 1016,
      "cold": 1017,
      "Why": 1018,
      "pond": 1019,
      "cook": 1020,
      "sunny": 1021,
      "others": 1022,
      "talk": 1023,
      "ds": 1024,
      "flo": 1025,
      "chen": 1026,
      "kitchen": 1027,
      "wait": 1028,
      "cut": 1029,
      "pie": 1030,
      "Dad": 1031,
      "cou": 1032,
      "dif": 1033,
      "first": 1034,
      "Hello": 1035,
      "mommy": 1036,
      "eyes": 1037,
      "age": 1038,
      "import": 1039,
      "fav": 1040,
      "ies": 1041,
      "con": 1042,
      "swe": 1043,
      "ath": 1044,
      "remember": 1045,
      "climb": 1046,
      "party": 1047,
      "ft": 1048,
      "ious": 1049,
      "sand": 1050,
      "bar": 1051,
      "orn": 1052,
      "move": 1053,
      "llow": 1054,
      "curi": 1055,
      "important": 1056,
      "light": 1057,
      "duck": 1058,
      "moral": 1059,
      "shared": 1060,
      "zy": 1061,
      "ster": 1062,
      "okay": 1063,
      "dress": 1064,
      "ash": 1065,
      "advent": 1066,
      "worked": 1067,
      "making": 1068,
      "enjoy": 1069,
      "times": 1070,
      "bright": 1071,
      "curious": 1072,
      "fru": 1073,
      "agre": 1074,
      "Mommy": 1075,
      "tall": 1076,
      "Joh": 1077,
      "dir": 1078,
      "hone": 1079,
      "hid": 1080,
      "John": 1081,
      "favor": 1082,
      "dis": 1083,
      "Wow": 1084,
      "sleep": 1085,
      "favorite": 1086,
      "began": 1087,
      "shar": 1088,
      "Bo": 1089,
      "fire": 1090,
      "bag": 1091,
      "hill": 1092,
      "agreed": 1093,
      "draw": 1094,
      "sho": 1095,
      "ken": 1096,
      "bre": 1097,
      "cla": 1098,
      "que": 1099,
      "hind": 1100,
      "watched": 1101,
      "follow": 1102,
      "mess": 1103,
      "zed": 1104,
      "Mr": 1105,
      "please": 1106,
      "pick": 1107,
      "block": 1108,
      "stop": 1109,
      "hung": 1110,
      "behind": 1111,
      "surprise": 1112,
      "paper": 1113,
      "gu": 1114,
      "hot": 1115,
      "Maybe": 1116,
      "worry": 1117,
      "dro": 1118,
      "dark": 1119,
      "Bobo": 1120,
      "trees": 1121,
      "voice": 1122,
      "grass": 1123,
      "walking": 1124,
      "lion": 1125,
      "air": 1126,
      "tail": 1127,
      "fere": 1128,
      "floor": 1129,
      "farm": 1130,
      "differe": 1131,
      "feeling": 1132,
      "song": 1133,
      "butter": 1134,
      "stand": 1135,
      "led": 1136,
      "wel": 1137,
      "ready": 1138,
      "ied": 1139,
      "colors": 1140,
      "Jane": 1141,
      "lady": 1142,
      "ange": 1143,
      "Timmy": 1144,
      "isy": 1145,
      "leaves": 1146,
      "closer": 1147,
      "ign": 1148,
      "cars": 1149,
      "turned": 1150,
      "needed": 1151,
      "wood": 1152,
      "cried": 1153,
      "piece": 1154,
      "different": 1155,
      "tri": 1156,
      "adventure": 1157,
      "does": 1158,
      "prin": 1159,
      "hair": 1160,
      "hungry": 1161,
      "cked": 1162,
      "bye": 1163,
      "yellow": 1164,
      "sweet": 1165,
      "ced": 1166,
      "full": 1167,
      "touch": 1168,
      "mar": 1169,
      "wet": 1170,
      "friendly": 1171,
      "mis": 1172,
      "ike": 1173,
      "cr": 1174,
      "ger": 1175,
      "din": 1176,
      "broken": 1177,
      "mou": 1178,
      "cra": 1179,
      "All": 1180,
      "land": 1181,
      "ient": 1182,
      "sit": 1183,
      "med": 1184,
      "prom": 1185,
      "another": 1186,
      "pretend": 1187,
      "dance": 1188,
      "reac": 1189,
      "climbed": 1190,
      "listened": 1191,
      "plan": 1192,
      "tle": 1193,
      "ater": 1194,
      "pen": 1195,
      "fl": 1196,
      "running": 1197,
      "To": 1198,
      "only": 1199,
      "river": 1200,
      "gone": 1201,
      "swim": 1202,
      "ila": 1203,
      "train": 1204,
      "andma": 1205,
      "thank": 1206,
      "smell": 1207,
      "There": 1208,
      "close": 1209,
      "ple": 1210,
      "tra": 1211,
      "gg": 1212,
      "Lila": 1213,
      "pet": 1214,
      "hold": 1215,
      "aby": 1216,
      "chair": 1217,
      "wonder": 1218,
      "blocks": 1219,
      "Everyone": 1220,
      "av": 1221,
      "fight": 1222,
      "reached": 1223,
      "lie": 1224,
      "bor": 1225,
      "wall": 1226,
      "rag": 1227,
      "ner": 1228,
      "ary": 1229,
      "helping": 1230,
      "kay": 1231,
      "slow": 1232,
      "ze": 1233,
      "cool": 1234,
      "glad": 1235,
      "hop": 1236,
      "goodbye": 1237,
      "been": 1238,
      "wear": 1239,
      "fair": 1240,
      "ins": 1241,
      "pushed": 1242,
      "ered": 1243,
      "oon": 1244,
      "dr": 1245,
      "iced": 1246,
      "bit": 1247,
      "Just": 1248,
      "sees": 1249,
      "hide": 1250,
      "coming": 1251,
      "must": 1252,
      "moment": 1253,
      "window": 1254,
      "balloon": 1255,
      "fr": 1256,
      "repl": 1257,
      "snow": 1258,
      "explore": 1259,
      "done": 1260,
      "bow": 1261,
      "Soon": 1262,
      "wished": 1263,
      "baby": 1264,
      "stuck": 1265,
      "buy": 1266,
      "fall": 1267,
      "real": 1268,
      "might": 1269,
      "name": 1270,
      "apple": 1271,
      "trying": 1272,
      "quick": 1273,
      "scary": 1274,
      "looks": 1275,
      "doing": 1276,
      "dream": 1277,
      "aisy": 1278,
      "ings": 1279,
      "dirty": 1280,
      "build": 1281,
      "outed": 1282,
      "ppy": 1283,
      "cket": 1284,
      "held": 1285,
      "Be": 1286,
      "ames": 1287,
      "spo": 1288,
      "arm": 1289,
      "je": 1290,
      "wise": 1291,
      "butterfly": 1292,
      "cast": 1293,
      "left": 1294,
      "deli": 1295,
      "swa": 1296,
      "shouted": 1297,
      "replied": 1298,
      "sure": 1299,
      "wo": 1300,
      "em": 1301,
      "win": 1302,
      "why": 1303,
      "reach": 1304,
      "bran": 1305,
      "through": 1306,
      "tiny": 1307,
      "wag": 1308,
      "mi": 1309,
      "mat": 1310,
      "three": 1311,
      "grow": 1312,
      "treat": 1313,
      "pulled": 1314,
      "brother": 1315,
      "woods": 1316,
      "art": 1317,
      "fill": 1318,
      "bus": 1319,
      "ton": 1320,
      "seen": 1321,
      "pink": 1322,
      "cup": 1323,
      "plant": 1324,
      "clapped": 1325,
      "sometimes": 1326,
      "ield": 1327,
      "andy": 1328,
      "year": 1329,
      "cloud": 1330,
      "swam": 1331,
      "grabb": 1332,
      "Okay": 1333,
      "job": 1334,
      "Inside": 1335,
      "colorful": 1336,
      "remembered": 1337,
      "nest": 1338,
      "bigger": 1339,
      "mouth": 1340,
      "lesson": 1341,
      "join": 1342,
      "Oh": 1343,
      "waved": 1344,
      "grabbed": 1345,
      "stayed": 1346,
      "Daisy": 1347,
      "uddy": 1348,
      "clothe": 1349,
      "Buddy": 1350,
      "rot": 1351,
      "nap": 1352,
      "oup": 1353,
      "clothes": 1354,
      "waited": 1355,
      "heav": 1356,
      "quickly": 1357,
      "pare": 1358,
      "broke": 1359,
      "games": 1360,
      "gent": 1361,
      "vis": 1362,
      "blew": 1363,
      "Finally": 1364,
      "gl": 1365,
      "ucky": 1366,
      "erous": 1367,
      "While": 1368,
      "row": 1369,
      "zz": 1370,
      "noticed": 1371,
      "enjoyed": 1372,
      "tast": 1373,
      "pur": 1374,
      "likes": 1375,
      "thre": 1376,
      "paint": 1377,
      "sea": 1378,
      "books": 1379,
      "pictures": 1380,
      "dry": 1381,
      "heavy": 1382,
      "mus": 1383,
      "alone": 1384,
      "gif": 1385,
      "asure": 1386,
      "anything": 1387,
      "spot": 1388,
      "live": 1389,
      "Tommy": 1390,
      "hopped": 1391,
      "world": 1392,
      "turns": 1393,
      "castle": 1394,
      "cont": 1395,
      "pat": 1396,
      "Sarah": 1397,
      "mix": 1398,
      "bike": 1399,
      "tight": 1400,
      "forgot": 1401,
      "everywhere": 1402,
      "Joe": 1403,
      "tower": 1404,
      "round": 1405,
      "threw": 1406,
      "himself": 1407,
      "whis": 1408,
      "Please": 1409,
      "followed": 1410,
      "ride": 1411,
      "ju": 1412,
      "board": 1413,
      "fruit": 1414,
      "ather": 1415,
      "\".": 1416,
      "white": 1417,
      "sec": 1418,
      "wrong": 1419,
      "makes": 1420,
      "Em": 1421,
      "stran": 1422,
      "break": 1423,
      "pre": 1424,
      "black": 1425,
      "parent": 1426,
      "thy": 1427,
      "music": 1428,
      "bee": 1429,
      "deep": 1430,
      "cess": 1431,
      "Re": 1432,
      "stone": 1433,
      "olly": 1434,
      "Billy": 1435,
      "ation": 1436,
      "whe": 1437,
      "stre": 1438,
      "oun": 1439,
      "wi": 1440,
      "pill": 1441,
      "lar": 1442,
      "iet": 1443,
      "danced": 1444,
      "ap": 1445,
      "ali": 1446,
      "wants": 1447,
      "leaf": 1448,
      "quiet": 1449,
      "ba": 1450,
      "monster": 1451,
      "understand": 1452,
      "bowl": 1453,
      "fur": 1454,
      "Come": 1455,
      "ub": 1456,
      "talked": 1457,
      "itten": 1458,
      "pes": 1459,
      "faster": 1460,
      "fully": 1461,
      "cookies": 1462,
      "pro": 1463,
      "leg": 1464,
      "brought": 1465,
      "ross": 1466,
      "sc": 1467,
      "ph": 1468,
      "cy": 1469,
      "mum": 1470,
      "sign": 1471,
      "ued": 1472,
      "ance": 1473,
      "sis": 1474,
      "ts": 1475,
      "well": 1476,
      "smart": 1477,
      "rocks": 1478,
      "someone": 1479,
      "poin": 1480,
      "cover": 1481,
      "sharing": 1482,
      "reali": 1483,
      "fox": 1484,
      "happen": 1485,
      "button": 1486,
      "branch": 1487,
      "finished": 1488,
      "really": 1489,
      "Gr": 1490,
      "hit": 1491,
      "ence": 1492,
      "oom": 1493,
      "itch": 1494,
      "orange": 1495,
      "sister": 1496,
      "dinner": 1497,
      "corn": 1498,
      "zing": 1499,
      "gi": 1500,
      "flying": 1501,
      "ele": 1502,
      "most": 1503,
      "fect": 1504,
      "contin": 1505,
      "worried": 1506,
      "sy": 1507,
      "beach": 1508,
      "af": 1509,
      "secret": 1510,
      "plane": 1511,
      "dang": 1512,
      "wish": 1513,
      "stu": 1514,
      "dren": 1515,
      "chil": 1516,
      "free": 1517,
      "spe": 1518,
      "today": 1519,
      "perfect": 1520,
      "min": 1521,
      "everything": 1522,
      "silly": 1523,
      "children": 1524,
      "shin": 1525,
      "filled": 1526,
      "field": 1527,
      "oth": 1528,
      "else": 1529,
      "stead": 1530,
      "OK": 1531,
      "smiles": 1532,
      "visit": 1533,
      "sang": 1534,
      "pow": 1535,
      "asks": 1536,
      "pull": 1537,
      "parents": 1538,
      "pudd": 1539,
      "snack": 1540,
      "eating": 1541,
      "pieces": 1542,
      "realized": 1543,
      "promised": 1544,
      "ctor": 1545,
      "pig": 1546,
      "spr": 1547,
      "pers": 1548,
      "continued": 1549,
      "bite": 1550,
      "ses": 1551,
      "ons": 1552,
      "carefully": 1553,
      "itting": 1554,
      "hig": 1555,
      "jar": 1556,
      "phone": 1557,
      "gra": 1558,
      "pper": 1559,
      "cow": 1560,
      "ated": 1561,
      "words": 1562,
      "moved": 1563,
      "drag": 1564,
      "mud": 1565,
      "rolled": 1566,
      "wave": 1567,
      "amp": 1568,
      "appear": 1569,
      "crying": 1570,
      "Jim": 1571,
      "blan": 1572,
      "blanket": 1573,
      "enough": 1574,
      "Le": 1575,
      "oney": 1576,
      "bath": 1577,
      "dri": 1578,
      "soup": 1579,
      "mother": 1580,
      "sail": 1581,
      "push": 1582,
      "imi": 1583,
      "My": 1584,
      "Mimi": 1585,
      "Jen": 1586,
      "drink": 1587,
      "Some": 1588,
      "pass": 1589,
      "snake": 1590,
      "boun": 1591,
      "roll": 1592,
      "throw": 1593,
      "crab": 1594,
      "laughing": 1595,
      "fairy": 1596,
      "ote": 1597,
      "amazing": 1598,
      "getting": 1599,
      "purple": 1600,
      "without": 1601,
      "grandma": 1602,
      "bottle": 1603,
      "gift": 1604,
      "mail": 1605,
      "money": 1606,
      "spl": 1607,
      "barked": 1608,
      "wagged": 1609,
      "past": 1610,
      "chool": 1611,
      "welcome": 1612,
      "sel": 1613,
      "monkey": 1614,
      "brown": 1615,
      "doctor": 1616,
      "ises": 1617,
      "school": 1618,
      "closed": 1619,
      "pping": 1620,
      "cious": 1621,
      "morning": 1622,
      "owner": 1623,
      "candy": 1624,
      "lone": 1625,
      "higher": 1626,
      "stoo": 1627,
      "treasure": 1628,
      "sitting": 1629,
      ".”": 1630,
      "hes": 1631,
      "dangerous": 1632,
      "!”": 1633,
      "net": 1634,
      "lonely": 1635,
      "shop": 1636,
      "living": 1637,
      "apples": 1638,
      "icy": 1639,
      "count": 1640,
      "strange": 1641,
      "comfor": 1642,
      "smo": 1643,
      "Bl": 1644,
      "shining": 1645,
      "road": 1646,
      "egg": 1647,
      "ants": 1648,
      "una": 1649,
      "creat": 1650,
      "paw": 1651,
      "cks": 1652,
      "shoes": 1653,
      "ible": 1654,
      "talking": 1655,
      "althy": 1656,
      "caught": 1657,
      "Ch": 1658,
      "stood": 1659,
      "lake": 1660,
      "runs": 1661,
      "coat": 1662,
      "bas": 1663,
      "letter": 1664,
      "wings": 1665,
      "chee": 1666,
      "cho": 1667,
      "nee": 1668,
      "va": 1669,
      "fan": 1670,
      "Fred": 1671,
      "years": 1672,
      "basket": 1673,
      "dragon": 1674,
      "days": 1675,
      "belie": 1676,
      "thinks": 1677,
      "mine": 1678,
      "delicious": 1679,
      "nose": 1680,
      "puddle": 1681,
      "igg": 1682,
      "farmer": 1683,
      "same": 1684,
      "Emma": 1685,
      "teddy": 1686,
      "unch": 1687,
      "mind": 1688,
      "sear": 1689,
      "ches": 1690,
      "Whis": 1691,
      "Molly": 1692,
      "Good": 1693,
      "fit": 1694,
      "bring": 1695,
      "gentle": 1696,
      "start": 1697,
      "wards": 1698,
      "Together": 1699,
      "finally": 1700,
      "cray": 1701,
      "pol": 1702,
      "scream": 1703,
      "kite": 1704,
      "shell": 1705,
      "vill": 1706,
      "hor": 1707,
      "singing": 1708,
      "idge": 1709,
      "tasty": 1710,
      "ace": 1711,
      "ben": 1712,
      "trou": 1713,
      "herself": 1714,
      "hoped": 1715,
      "answ": 1716,
      "wore": 1717,
      "arri": 1718,
      "uni": 1719,
      "swings": 1720,
      "Blue": 1721,
      "kis": 1722,
      "belong": 1723,
      "pack": 1724,
      "kers": 1725,
      "bush": 1726,
      "ng": 1727,
      "woke": 1728,
      "kn": 1729,
      "carrot": 1730,
      "ming": 1731,
      "ughty": 1732,
      "teach": 1733,
      "Bell": 1734,
      "eleph": 1735,
      "naughty": 1736,
      "dropped": 1737,
      "hu": 1738,
      "Whiskers": 1739,
      "coll": 1740,
      "teac": 1741,
      "pile": 1742,
      "hiding": 1743,
      "cour": 1744,
      "Remy": 1745,
      "Their": 1746,
      "di": 1747,
      "isa": 1748,
      "Bella": 1749,
      "bell": 1750,
      "touc": 1751,
      "puppy": 1752,
      "val": 1753,
      "kno": 1754,
      "su": 1755,
      "If": 1756,
      "llie": 1757,
      "twins": 1758,
      "lunch": 1759,
      "sack": 1760,
      "ment": 1761,
      "Lisa": 1762,
      "mach": 1763,
      "Grandma": 1764,
      "Mark": 1765,
      "rope": 1766,
      "course": 1767,
      "cheered": 1768,
      "shapes": 1769,
      "grew": 1770,
      "lay": 1771,
      "village": 1772,
      "fused": 1773,
      "erful": 1774,
      "shelf": 1775,
      "irth": 1776,
      "spin": 1777,
      "juice": 1778,
      "rainbow": 1779,
      "word": 1780,
      "part": 1781,
      "shook": 1782,
      "irthday": 1783,
      "bench": 1784,
      "street": 1785,
      "fence": 1786,
      "Jill": 1787,
      "cute": 1788,
      "nut": 1789,
      "cal": 1790,
      "cheese": 1791,
      "touched": 1792,
      "balls": 1793,
      "shad": 1794,
      "orm": 1795,
      "wand": 1796,
      "seed": 1797,
      "tea": 1798,
      "des": 1799,
      "loom": 1800,
      "eas": 1801,
      "arrived": 1802,
      "teacher": 1803,
      "wra": 1804,
      "band": 1805,
      "forever": 1806,
      "carry": 1807,
      "few": 1808,
      "bugs": 1809,
      "lla": 1810,
      "sounds": 1811,
      "sli": 1812,
      "blem": 1813,
      "problem": 1814,
      "Go": 1815,
      "num": 1816,
      "cing": 1817,
      "ier": 1818,
      "ilk": 1819,
      "promise": 1820,
      "wonderful": 1821,
      "birthday": 1822,
      "How": 1823,
      "stor": 1824,
      "dolls": 1825,
      "busy": 1826,
      "shy": 1827,
      "irp": 1828,
      "feels": 1829,
      "ade": 1830,
      "bread": 1831,
      "ian": 1832,
      "neck": 1833,
      "milk": 1834,
      "robot": 1835,
      "vel": 1836,
      "ntain": 1837,
      "heart": 1838,
      "pop": 1839,
      "believe": 1840,
      "cave": 1841,
      "irt": 1842,
      "pocket": 1843,
      "shake": 1844,
      "helpful": 1845,
      "seek": 1846,
      "storm": 1847,
      "slowly": 1848,
      "Pe": 1849,
      "umpy": 1850,
      "patient": 1851,
      "berries": 1852,
      "appeared": 1853,
      "driver": 1854,
      "ugly": 1855,
      "holding": 1856,
      "towards": 1857,
      "elephant": 1858,
      "upset": 1859,
      "ring": 1860,
      "turt": 1861,
      "kitten": 1862,
      "stories": 1863,
      "suc": 1864,
      "splash": 1865,
      "honey": 1866,
      "Sure": 1867,
      "late": 1868,
      "noises": 1869,
      "cir": 1870,
      "zoom": 1871,
      "Later": 1872,
      "spark": 1873,
      "sharp": 1874,
      "gray": 1875,
      "dirt": 1876,
      "dist": 1877,
      "seat": 1878,
      "Leo": 1879,
      "Ann": 1880,
      "ucket": 1881,
      "bucket": 1882,
      "meet": 1883,
      "uce": 1884,
      "shr": 1885,
      "note": 1886,
      "young": 1887,
      "amazed": 1888,
      "spoon": 1889,
      "turtle": 1890,
      "spid": 1891,
      "treats": 1892,
      "ull": 1893,
      "magical": 1894,
      "shine": 1895,
      "ped": 1896,
      "glow": 1897,
      "wash": 1898,
      "era": 1899,
      "fold": 1900,
      "Mama": 1901,
      "lemon": 1902,
      "comfortable": 1903,
      "trip": 1904,
      "mist": 1905,
      "gen": 1906,
      "quest": 1907,
      "hang": 1908,
      "horse": 1909,
      "jour": 1910,
      "loth": 1911,
      "add": 1912,
      "cloth": 1913,
      "puzz": 1914,
      "organ": 1915,
      "Daddy": 1916,
      "roar": 1917,
      "princess": 1918,
      "picy": 1919,
      "drive": 1920,
      "cookie": 1921,
      "hugs": 1922,
      "oose": 1923,
      "wild": 1924,
      "bled": 1925,
      "taking": 1926,
      "wheel": 1927,
      "organiz": 1928,
      "miss": 1929,
      "sug": 1930,
      "iling": 1931,
      "rich": 1932,
      "Of": 1933,
      "instead": 1934,
      "string": 1935,
      "ti": 1936,
      "lucky": 1937,
      "rude": 1938,
      "drove": 1939,
      "ero": 1940,
      "Bu": 1941,
      "mer": 1942,
      "lice": 1943,
      "huge": 1944,
      "spicy": 1945,
      "coin": 1946,
      "stars": 1947,
      "fighting": 1948,
      "Mary": 1949,
      "Hey": 1950,
      "tie": 1951,
      "bone": 1952,
      "den": 1953,
      "craw": 1954,
      "cor": 1955,
      "ek": 1956,
      "bubb": 1957,
      "last": 1958,
      "wide": 1959,
      "Cat": 1960,
      "life": 1961,
      "Ro": 1962,
      "card": 1963,
      "cannot": 1964,
      "whistle": 1965,
      "path": 1966,
      "ney": 1967,
      "sick": 1968,
      "bat": 1969,
      "comes": 1970,
      "resting": 1971,
      "rush": 1972,
      "circle": 1973,
      "spider": 1974,
      "foot": 1975,
      "snowman": 1976,
      "change": 1977,
      "inv": 1978,
      "Luna": 1979,
      "songs": 1980,
      "pillow": 1981,
      "fixed": 1982,
      "With": 1983,
      "sage": 1984,
      "boss": 1985,
      "giant": 1986,
      "erry": 1987,
      "ship": 1988,
      "forget": 1989,
      "joke": 1990,
      "pra": 1991,
      "moon": 1992,
      "taste": 1993,
      "wing": 1994,
      "worm": 1995,
      "machine": 1996,
      "grumpy": 1997,
      "coun": 1998,
      "thin": 1999,
      "step": 2000,
      "bri": 2001,
      "grab": 2002,
      "att": 2003,
      "rad": 2004,
      "peace": 2005,
      "Chirp": 2006,
      "ined": 2007,
      "daddy": 2008,
      "sour": 2009,
      "fing": 2010,
      "hidden": 2011,
      "suddenly": 2012,
      "wasn": 2013,
      "write": 2014,
      "landed": 2015,
      "confused": 2016,
      "chased": 2017,
      "inte": 2018,
      "ert": 2019,
      "fruits": 2020,
      "myster": 2021,
      "smooth": 2022,
      "stepped": 2023,
      "adventures": 2024,
      "oven": 2025,
      "cage": 2026,
      "missed": 2027,
      "takes": 2028,
      "selfish": 2029,
      "ggy": 2030,
      "tu": 2031,
      "kin": 2032,
      "sheep": 2033,
      "messy": 2034,
      "cop": 2035,
      "across": 2036,
      "pan": 2037,
      "though": 2038,
      "dest": 2039,
      "hero": 2040,
      "sticks": 2041,
      "ps": 2042,
      "later": 2043,
      "Momo": 2044,
      "io": 2045,
      "bought": 2046,
      "gy": 2047,
      "drew": 2048,
      "cord": 2049,
      "grate": 2050,
      "elly": 2051,
      "ars": 2052,
      "Chirpy": 2053,
      "?”": 2054,
      "loves": 2055,
      "Ollie": 2056,
      "child": 2057,
      "beak": 2058,
      "line": 2059,
      "ducks": 2060,
      "legs": 2061,
      "body": 2062,
      "da": 2063,
      "fil": 2064,
      "covered": 2065,
      "ye": 2066,
      "grateful": 2067,
      "Bunny": 2068,
      "pty": 2069,
      "empty": 2070,
      "hope": 2071,
      "slid": 2072,
      "feather": 2073,
      "Doggy": 2074,
      "sleepy": 2075,
      "drum": 2076,
      "ions": 2077,
      "zoo": 2078,
      "save": 2079,
      "ward": 2080,
      "Help": 2081,
      "Mum": 2082,
      "Jerry": 2083,
      "clever": 2084,
      "smelly": 2085,
      "ban": 2086,
      "Jimmy": 2087,
      "shes": 2088,
      "interesting": 2089,
      "chick": 2090,
      "watching": 2091,
      "finish": 2092,
      "rubb": 2093,
      "log": 2094,
      "izzy": 2095,
      "gest": 2096,
      "plate": 2097,
      "clouds": 2098,
      "banan": 2099,
      "faces": 2100,
      "Where": 2101,
      "backyard": 2102,
      "wolf": 2103,
      "test": 2104,
      "izz": 2105,
      "dogs": 2106,
      "spray": 2107,
      "seemed": 2108,
      "og": 2109,
      "Here": 2110,
      "rank": 2111,
      "prote": 2112,
      "whole": 2113,
      "fancy": 2114,
      "arms": 2115,
      "healthy": 2116,
      "gives": 2117,
      "puzzle": 2118,
      "pin": 2119,
      "sent": 2120,
      "along": 2121,
      "rocket": 2122,
      "explain": 2123,
      "tom": 2124,
      "easy": 2125,
      "trouble": 2126,
      "jewel": 2127,
      "working": 2128,
      "pract": 2129,
      "jelly": 2130,
      "fake": 2131,
      "tid": 2132,
      "spla": 2133,
      "scre": 2134,
      "maybe": 2135,
      "hing": 2136,
      "crayons": 2137,
      "wondered": 2138,
      "fron": 2139,
      "cape": 2140,
      "nothing": 2141,
      "stair": 2142,
      "ipp": 2143,
      "pool": 2144,
      "front": 2145,
      "Bird": 2146,
      "longer": 2147,
      "queen": 2148,
      "anyone": 2149,
      "mir": 2150,
      "van": 2151,
      "sol": 2152,
      "such": 2153,
      "imag": 2154,
      "hello": 2155,
      "bossy": 2156,
      "neigh": 2157,
      "ves": 2158,
      "smelled": 2159,
      "saved": 2160,
      "Bobby": 2161,
      "vie": 2162,
      "shirt": 2163,
      "barr": 2164,
      "honest": 2165,
      "embarr": 2166,
      "lift": 2167,
      "iting": 2168,
      "berry": 2169,
      "tidy": 2170,
      "shout": 2171,
      "Are": 2172,
      "weak": 2173,
      "kick": 2174,
      "puts": 2175,
      "embarrass": 2176,
      "calm": 2177,
      "plants": 2178,
      "gently": 2179,
      "coo": 2180,
      "cozy": 2181,
      "ugg": 2182,
      "explor": 2183,
      "sco": 2184,
      "mistake": 2185,
      "aser": 2186,
      "yog": 2187,
      "onto": 2188,
      "waiting": 2189,
      "pointed": 2190,
      "cross": 2191,
      "jumping": 2192,
      "prince": 2193,
      "erly": 2194,
      "forgive": 2195,
      "bul": 2196,
      "chicken": 2197,
      "lovely": 2198,
      "Stop": 2199,
      "bal": 2200,
      "stret": 2201,
      "large": 2202,
      "match": 2203,
      "ladder": 2204,
      "deer": 2205,
      "couch": 2206,
      "ughter": 2207,
      "lex": 2208,
      "lown": 2209,
      "places": 2210,
      "colle": 2211,
      "bridge": 2212,
      "daughter": 2213,
      "return": 2214,
      "raid": 2215,
      "stir": 2216,
      "nic": 2217,
      "dish": 2218,
      "afraid": 2219,
      "Tiny": 2220,
      "cleaned": 2221,
      "tomor": 2222,
      "tomorrow": 2223,
      "building": 2224,
      "law": 2225,
      "wich": 2226,
      "ado": 2227,
      "sandwich": 2228,
      "person": 2229,
      "ned": 2230,
      "asha": 2231,
      "pretended": 2232,
      "bounce": 2233,
      "ending": 2234,
      "eth": 2235,
      "search": 2236,
      "pizz": 2237,
      "boring": 2238,
      "wom": 2239,
      "gather": 2240,
      "protect": 2241,
      "ast": 2242,
      "woman": 2243,
      "teeth": 2244,
      "scarf": 2245,
      "jog": 2246,
      "goes": 2247,
      "pri": 2248,
      "hin": 2249,
      "Your": 2250,
      "swimming": 2251,
      "furry": 2252,
      "splashed": 2253,
      "number": 2254,
      "true": 2255,
      "screamed": 2256,
      "lazy": 2257,
      "ually": 2258,
      "eag": 2259,
      "answer": 2260,
      "fear": 2261,
      "ashamed": 2262,
      "pens": 2263,
      "pizza": 2264,
      "Benny": 2265,
      "brush": 2266,
      "ones": 2267,
      "motor": 2268,
      "Sometimes": 2269,
      "nearby": 2270,
      "powerful": 2271,
      "flag": 2272,
      "vous": 2273,
      "clown": 2274,
      "ress": 2275,
      "respec": 2276,
      "Ducky": 2277,
      "Will": 2278,
      "success": 2279,
      "TV": 2280,
      "polite": 2281,
      "chocol": 2282,
      "hose": 2283,
      "clear": 2284,
      "trust": 2285,
      "creative": 2286,
      "wearing": 2287,
      "case": 2288,
      "noisy": 2289,
      "ail": 2290,
      "matter": 2291,
      "dig": 2292,
      "fli": 2293,
      "tool": 2294,
      "ror": 2295,
      "ult": 2296,
      "nervous": 2297,
      "shadow": 2298,
      "smiling": 2299,
      "sold": 2300,
      "saur": 2301,
      "Bear": 2302,
      "ery": 2303,
      "form": 2304,
      "drank": 2305,
      "osaur": 2306,
      "tries": 2307,
      "chocolate": 2308,
      "Give": 2309,
      "oc": 2310,
      "impress": 2311,
      "wha": 2312,
      "icro": 2313,
      "Who": 2314,
      "knee": 2315,
      "dinosaur": 2316,
      "gun": 2317,
      "mirror": 2318,
      "gold": 2319,
      "rare": 2320,
      "balloons": 2321,
      "cand": 2322,
      "jam": 2323,
      "carried": 2324,
      "pensive": 2325,
      "ich": 2326,
      "known": 2327,
      "ute": 2328,
      "expensive": 2329,
      "cri": 2330,
      "bald": 2331,
      "map": 2332,
      "au": 2333,
      "ina": 2334,
      "mysterious": 2335,
      "respect": 2336,
      "pump": 2337,
      "march": 2338,
      "oppy": 2339,
      "class": 2340,
      "weird": 2341,
      "snee": 2342,
      "tent": 2343,
      "gate": 2344,
      "soap": 2345,
      "Me": 2346,
      "act": 2347,
      "icked": 2348,
      "issor": 2349,
      "these": 2350,
      "issors": 2351,
      "poor": 2352,
      "towel": 2353,
      "whale": 2354,
      "feet": 2355,
      "tape": 2356,
      "rough": 2357,
      "dizzy": 2358,
      "andpa": 2359,
      "itter": 2360,
      "generous": 2361,
      "Ella": 2362,
      "tory": 2363,
      "chew": 2364,
      "sque": 2365,
      "ours": 2366,
      "ness": 2367,
      "wake": 2368,
      "lead": 2369,
      "ventually": 2370,
      "picnic": 2371,
      "micro": 2372,
      "embarrassed": 2373,
      "ling": 2374,
      "sugar": 2375,
      "journey": 2376,
      "boot": 2377,
      "peaceful": 2378,
      "fat": 2379,
      "Andy": 2380,
      "print": 2381,
      "ee": 2382,
      "scissors": 2383,
      "kiss": 2384,
      "mel": 2385,
      "tasted": 2386,
      "yelled": 2387,
      "hur": 2388,
      "dancing": 2389,
      "glue": 2390,
      "lose": 2391,
      "decor": 2392,
      "oop": 2393,
      "closet": 2394,
      "crown": 2395,
      "chase": 2396,
      "ual": 2397,
      "lamp": 2398,
      "scare": 2399,
      "usual": 2400,
      "eld": 2401,
      "locked": 2402,
      "pay": 2403,
      "relie": 2404,
      "cele": 2405,
      "tele": 2406,
      "celebr": 2407,
      "spa": 2408,
      "blow": 2409,
      "stairs": 2410,
      "painted": 2411,
      "vase": 2412,
      "vide": 2413,
      "burn": 2414,
      "spread": 2415,
      "mixed": 2416,
      "norm": 2417,
      "wouldn": 2418,
      "bake": 2419,
      "rod": 2420,
      "getable": 2421,
      "mountain": 2422,
      "bean": 2423,
      "inc": 2424,
      "become": 2425,
      "Jenny": 2426,
      "drawing": 2427,
      "clock": 2428,
      "gust": 2429,
      "famous": 2430,
      "Little": 2431,
      "knocked": 2432,
      "vegetable": 2433,
      "kicked": 2434,
      "shark": 2435,
      "normal": 2436,
      "incred": 2437,
      "group": 2438,
      "Rex": 2439,
      "team": 2440,
      "ignor": 2441,
      "collect": 2442,
      "fine": 2443,
      "glass": 2444,
      "thick": 2445,
      "guess": 2446,
      "elderly": 2447,
      "lace": 2448,
      "corner": 2449,
      "cone": 2450,
      "mighty": 2451,
      "frustr": 2452,
      "incredible": 2453,
      "nail": 2454,
      "sup": 2455,
      "ighed": 2456,
      "moms": 2457,
      "breath": 2458,
      "balance": 2459,
      "gas": 2460,
      "Zoom": 2461,
      "est": 2462,
      "frag": 2463,
      "space": 2464,
      "Sammy": 2465,
      "sock": 2466,
      "tun": 2467,
      "organized": 2468,
      "fright": 2469,
      "branches": 2470,
      "sell": 2471,
      "alous": 2472,
      "fool": 2473,
      "feed": 2474,
      "neighbor": 2475,
      "hel": 2476,
      "fragile": 2477,
      "aw": 2478,
      "which": 2479,
      "umble": 2480,
      "shoe": 2481,
      "jealous": 2482,
      "yarn": 2483,
      "horn": 2484,
      "pir": 2485,
      "understood": 2486,
      "pair": 2487,
      "exam": 2488,
      "stubb": 2489,
      "pray": 2490,
      "stubborn": 2491,
      "frustrated": 2492,
      "cube": 2493,
      "whisper": 2494,
      "anc": 2495,
      "twist": 2496,
      "chest": 2497,
      "spent": 2498,
      "cher": 2499,
      "ten": 2500,
      "taught": 2501,
      "stic": 2502,
      "chang": 2503,
      "bark": 2504,
      "ray": 2505,
      "creature": 2506,
      "spoiled": 2507,
      "ancient": 2508,
      "cart": 2509,
      "relieved": 2510,
      "fier": 2511,
      "terri": 2512,
      "fierce": 2513,
      "owed": 2514,
      "barn": 2515,
      "measure": 2516,
      "eggs": 2517,
      "pumpkin": 2518,
      "toug": 2519,
      "frightened": 2520,
      "unique": 2521,
      "cab": 2522,
      "wrap": 2523,
      "goat": 2524,
      "wagon": 2525,
      "foolish": 2526,
      "useful": 2527,
      "straw": 2528,
      "exploring": 2529,
      "dead": 2530,
      "unusual": 2531,
      "dug": 2532,
      "gigg": 2533,
      "clay": 2534,
      "toma": 2535,
      "tomato": 2536,
      "police": 2537,
      "finding": 2538,
      "present": 2539,
      "wrote": 2540,
      "clum": 2541,
      "Br": 2542,
      "waves": 2543,
      "ity": 2544,
      "ony": 2545,
      "square": 2546,
      "hears": 2547,
      "soar": 2548,
      "cabin": 2549,
      "tells": 2550,
      "necklace": 2551,
      "dull": 2552,
      "iver": 2553,
      "tough": 2554,
      "clumsy": 2555,
      "tig": 2556,
      "bubbles": 2557,
      "nosy": 2558,
      "searched": 2559,
      "ham": 2560,
      "washed": 2561,
      "lu": 2562,
      "orry": 2563,
      "painting": 2564,
      "bathroom": 2565,
      "yal": 2566,
      "ize": 2567,
      "paws": 2568,
      "rat": 2569,
      "wis": 2570,
      "clap": 2571,
      "fic": 2572,
      "crazy": 2573,
      "bitter": 2574,
      "ipped": 2575,
      "asking": 2576,
      "thankful": 2577,
      "cil": 2578,
      "Sorry": 2579,
      "witch": 2580,
      "ficult": 2581,
      "difficult": 2582,
      "rose": 2583,
      "Today": 2584,
      "swan": 2585,
      "ato": 2586,
      "unknown": 2587,
      "bloom": 2588,
      "meal": 2589,
      "gloom": 2590,
      "pencil": 2591,
      "finger": 2592,
      "ife": 2593,
      "jet": 2594,
      "sword": 2595,
      "lin": 2596,
      "sca": 2597,
      "gloomy": 2598,
      "loyal": 2599,
      "wealthy": 2600,
      "Many": 2601,
      "zip": 2602,
      "cats": 2603,
      "moving": 2604,
      "cate": 2605,
      "guit": 2606,
      "value": 2607,
      "dove": 2608,
      "joined": 2609,
      "changed": 2610,
      "terrible": 2611,
      "anut": 2612,
      "yours": 2613,
      "nuts": 2614,
      "stri": 2615,
      "bers": 2616,
      "salad": 2617,
      "rise": 2618,
      "iant": 2619,
      "cane": 2620,
      "order": 2621,
      "selves": 2622,
      "Ted": 2623,
      "Brown": 2624,
      "tiger": 2625,
      "potato": 2626,
      "shoot": 2627,
      "lexible": 2628,
      "knowing": 2629,
      "exciting": 2630,
      "hairy": 2631,
      "Instead": 2632,
      "cheap": 2633,
      "marble": 2634,
      "lif": 2635,
      "guitar": 2636,
      "irsty": 2637,
      "adventur": 2638,
      "enorm": 2639,
      "yourself": 2640,
      "enormous": 2641,
      "cro": 2642,
      "fla": 2643,
      "solve": 2644,
      "pepper": 2645,
      "remind": 2646,
      "record": 2647,
      "bored": 2648,
      "agree": 2649,
      "sunshine": 2650,
      "adventurous": 2651,
      "acorn": 2652,
      "hats": 2653,
      "smaller": 2654,
      "flash": 2655,
      "stuff": 2656,
      "flexible": 2657,
      "delicate": 2658,
      "dle": 2659,
      "knife": 2660,
      "lliant": 2661,
      "coura": 2662,
      "shore": 2663,
      "snacks": 2664,
      "nods": 2665,
      "dough": 2666,
      "brilliant": 2667,
      "thirsty": 2668,
      "res": 2669,
      "disgust": 2670,
      "stat": 2671,
      "market": 2672,
      "frown": 2673,
      "upid": 2674,
      "rane": 2675,
      "counted": 2676,
      "banana": 2677,
      "seeds": 2678,
      "asleep": 2679,
      "Ow": 2680,
      "heal": 2681,
      "stage": 2682,
      "mailbox": 2683,
      "sport": 2684,
      "trick": 2685,
      "hoop": 2686,
      "St": 2687,
      "ungle": 2688,
      "squee": 2689,
      "ident": 2690,
      "jungle": 2691,
      "supp": 2692,
      "page": 2693,
      "explained": 2694,
      "disgusting": 2695,
      "stupid": 2696,
      "umbre": 2697,
      "jolly": 2698,
      "fridge": 2699,
      "flies": 2700,
      "dge": 2701,
      "dep": 2702,
      "four": 2703,
      "ilt": 2704,
      "Jake": 2705,
      "crane": 2706,
      "iddle": 2707,
      "ular": 2708,
      "igin": 2709,
      "relax": 2710,
      "obed": 2711,
      "island": 2712,
      "cater": 2713,
      "sunflower": 2714,
      "caterpill": 2715,
      "shiver": 2716,
      "iness": 2717,
      "epend": 2718,
      "iginal": 2719,
      "harm": 2720,
      "medic": 2721,
      "See": 2722,
      "ates": 2723,
      "eng": 2724,
      "goose": 2725,
      "stove": 2726,
      "gets": 2727,
      "spring": 2728,
      "using": 2729,
      "obedient": 2730,
      "verse": 2731,
      "independ": 2732,
      "Tr": 2733,
      "suit": 2734,
      "del": 2735,
      "gem": 2736,
      "batter": 2737,
      "medicine": 2738,
      "stal": 2739,
      "stones": 2740,
      "sighed": 2741,
      "original": 2742,
      "Emily": 2743,
      "vegetables": 2744,
      "rug": 2745,
      "port": 2746,
      "careless": 2747,
      "stamp": 2748,
      "successful": 2749,
      "mark": 2750,
      "men": 2751,
      "sauce": 2752,
      "cries": 2753,
      "Lu": 2754,
      "carrots": 2755,
      "depend": 2756,
      "jeep": 2757,
      "popcorn": 2758,
      "almost": 2759,
      "middle": 2760,
      "study": 2761,
      "independent": 2762,
      "spit": 2763,
      "pal": 2764,
      "fearful": 2765,
      "inky": 2766,
      "escape": 2767,
      "belt": 2768,
      "press": 2769,
      "ountain": 2770,
      "brace": 2771,
      "caterpillar": 2772,
      "serious": 2773,
      "peanut": 2774,
      "bedroom": 2775,
      "eager": 2776,
      "parrot": 2777,
      "pebb": 2778,
      "statue": 2779,
      "helmet": 2780,
      "acket": 2781,
      "fountain": 2782,
      "pasta": 2783,
      "raven": 2784,
      "umbrella": 2785,
      "jacket": 2786,
      "belonged": 2787,
      "filthy": 2788,
      "design": 2789,
      "borrow": 2790,
      "houses": 2791,
      "erable": 2792,
      "comb": 2793,
      "liz": 2794,
      "prize": 2795,
      "hay": 2796,
      "standing": 2797,
      "melon": 2798,
      "miserable": 2799,
      "raced": 2800,
      "uli": 2801,
      "bracelet": 2802,
      "taken": 2803,
      "gum": 2804,
      "fork": 2805,
      "lean": 2806,
      "avo": 2807,
      "web": 2808,
      "vest": 2809,
      "triang": 2810,
      "impressive": 2811,
      "crayon": 2812,
      "choose": 2813,
      "fig": 2814,
      "nel": 2815,
      "oured": 2816,
      "True": 2817,
      "tied": 2818,
      "steal": 2819,
      "spotted": 2820,
      "lifted": 2821,
      "slipped": 2822,
      "liable": 2823,
      "tank": 2824,
      "wip": 2825,
      "ased": 2826,
      "Mummy": 2827,
      "cer": 2828,
      "thoughtful": 2829,
      "dependable": 2830,
      "toast": 2831,
      "arage": 2832,
      "Peter": 2833,
      "built": 2834,
      "arrow": 2835,
      "garage": 2836,
      "Even": 2837,
      "ipe": 2838,
      "crack": 2839,
      "news": 2840,
      "boats": 2841,
      "lid": 2842,
      "mole": 2843,
      "dolp": 2844,
      "iano": 2845,
      "crawled": 2846,
      "scale": 2847,
      "giving": 2848,
      "hammer": 2849,
      "char": 2850,
      "piano": 2851,
      "bottom": 2852,
      "picks": 2853,
      "cheerful": 2854,
      "smoke": 2855,
      "moder": 2856,
      "dile": 2857,
      "shows": 2858,
      "shroom": 2859,
      "jug": 2860,
      "oin": 2861,
      "codile": 2862,
      "hurts": 2863,
      "aunt": 2864,
      "serve": 2865,
      "waff": 2866,
      "cco": 2867,
      "wrapped": 2868,
      "modern": 2869,
      "reliable": 2870,
      "tunnel": 2871,
      "nder": 2872,
      "hopping": 2873,
      "mask": 2874,
      "boys": 2875,
      "host": 2876,
      "rubbed": 2877,
      "mushroom": 2878,
      "squash": 2879,
      "sink": 2880,
      "tax": 2881,
      "movie": 2882,
      "pear": 2883,
      "flute": 2884,
      "beet": 2885,
      "rid": 2886,
      "popular": 2887,
      "rub": 2888,
      "cam": 2889,
      "sil": 2890,
      "licop": 2891,
      "licopter": 2892,
      "crystal": 2893,
      "compet": 2894,
      "appoin": 2895,
      "helicopter": 2896,
      "needs": 2897,
      "llip": 2898,
      "llipop": 2899,
      "dinary": 2900,
      "crocodile": 2901,
      "lizard": 2902,
      "ordinary": 2903,
      "competit": 2904,
      "troubled": 2905,
      "pige": 2906,
      "lollipop": 2907,
      "tricks": 2908,
      "playful": 2909,
      "humble": 2910,
      "taxi": 2911,
      "kissed": 2912,
      "Sus": 2913,
      "amond": 2914,
      "licked": 2915,
      "uncomfortable": 2916,
      "cap": 2917,
      "angel": 2918,
      "edy": 2919,
      "grace": 2920,
      "muff": 2921,
      "torn": 2922,
      "anx": 2923,
      "pants": 2924,
      "twig": 2925,
      "disappoin": 2926,
      "helps": 2927,
      "diamond": 2928,
      "camera": 2929,
      "quar": 2930,
      "anxious": 2931,
      "ghost": 2932,
      "tears": 2933,
      "ruined": 2934,
      "lime": 2935,
      "cident": 2936,
      "ilty": 2937,
      "env": 2938,
      "weet": 2939,
      "guilty": 2940,
      "tube": 2941,
      "happiness": 2942,
      "bull": 2943,
      "aero": 2944,
      "helpless": 2945,
      "walks": 2946,
      "load": 2947,
      "passed": 2948,
      "cean": 2949,
      "une": 2950,
      "Next": 2951,
      "ears": 2952,
      "radio": 2953,
      "ocean": 2954,
      "polish": 2955,
      "deaf": 2956,
      "fluffy": 2957,
      "stretch": 2958,
      "runk": 2959,
      "candle": 2960,
      "meant": 2961,
      "cact": 2962,
      "coco": 2963,
      "bees": 2964,
      "beetle": 2965,
      "mop": 2966,
      "harmless": 2967,
      "answered": 2968,
      "stum": 2969,
      "collar": 2970,
      "shape": 2971,
      "Pipp": 2972,
      "quarrel": 2973,
      "compl": 2974,
      "trum": 2975,
      "flashlight": 2976,
      "lit": 2977,
      "Poppy": 2978,
      "harder": 2979,
      "poured": 2980,
      "tti": 2981,
      "cereal": 2982,
      "persist": 2983,
      "engine": 2984,
      "tag": 2985,
      "passion": 2986,
      "melt": 2987,
      "cado": 2988,
      "invited": 2989,
      "comput": 2990,
      "tooth": 2991,
      "trumpet": 2992,
      "office": 2993,
      "spill": 2994,
      "scoot": 2995,
      "triangle": 2996,
      "inse": 2997,
      "mug": 2998,
      "yogurt": 2999,
      "shade": 3000,
      "accident": 3001,
      "gular": 3002,
      "hip": 3003,
      "aghe": 3004,
      "aghetti": 3005,
      "disappointed": 3006,
      "Buzz": 3007,
      "sheet": 3008,
      "regular": 3009,
      "cactus": 3010,
      "pale": 3011,
      "Fo": 3012,
      "rice": 3013,
      "cush": 3014,
      "figure": 3015,
      "screen": 3016,
      "barber": 3017,
      "thie": 3018,
      "avocado": 3019,
      "roof": 3020,
      "power": 3021,
      "whispered": 3022,
      "pipe": 3023,
      "create": 3024,
      "tellig": 3025,
      "gue": 3026,
      "comple": 3027,
      "intellig": 3028,
      "asses": 3029,
      "rode": 3030,
      "thread": 3031,
      "icycle": 3032,
      "harsh": 3033,
      "libr": 3034,
      "vol": 3035,
      "gifted": 3036,
      "dust": 3037,
      "uth": 3038,
      "ubby": 3039,
      "cycle": 3040,
      "practiced": 3041,
      "ccoli": 3042,
      "Dan": 3043,
      "bicycle": 3044,
      "spaghetti": 3045,
      "velo": 3046,
      "compassion": 3047,
      "tur": 3048,
      "Polly": 3049,
      "speed": 3050,
      "sailed": 3051,
      "forward": 3052,
      "persistent": 3053,
      "mitten": 3054,
      "cocoa": 3055,
      "stream": 3056,
      "envelo": 3057,
      "nod": 3058,
      "computer": 3059,
      "questions": 3060,
      "Mis": 3061,
      "feathers": 3062,
      "tic": 3063,
      "glove": 3064,
      "cano": 3065,
      "shrimp": 3066,
      "desk": 3067,
      "pigeon": 3068,
      "charming": 3069,
      "azz": 3070,
      "knot": 3071,
      "envious": 3072,
      "turkey": 3073,
      "stronger": 3074,
      "coins": 3075,
      "magnet": 3076,
      "raft": 3077,
      "comet": 3078,
      "tem": 3079,
      "boxes": 3080,
      "ctive": 3081,
      "aeroplane": 3082,
      "trunk": 3083,
      "wheat": 3084,
      "atch": 3085,
      "spun": 3086,
      "intelligent": 3087,
      "chubby": 3088,
      "restless": 3089,
      "seal": 3090,
      "carpet": 3091,
      "dreams": 3092,
      "Alice": 3093,
      "friendship": 3094,
      "half": 3095,
      "bandage": 3096,
      "salt": 3097,
      "Bet": 3098,
      "volcano": 3099,
      "vio": 3100,
      "broccoli": 3101,
      "crawl": 3102,
      "deliver": 3103,
      "onion": 3104,
      "mill": 3105,
      "sle": 3106,
      "acce": 3107,
      "week": 3108,
      "vine": 3109,
      "video": 3110,
      "roy": 3111,
      "track": 3112,
      "attra": 3113,
      "cauli": 3114,
      "ticket": 3115,
      "thief": 3116,
      "essie": 3117,
      "leo": 3118,
      "louder": 3119,
      "insect": 3120,
      "numbers": 3121,
      "yaw": 3122,
      "haircut": 3123,
      "sleeping": 3124,
      "judge": 3125,
      "alert": 3126,
      "spital": 3127,
      "eventually": 3128,
      "excite": 3129,
      "hospital": 3130,
      "pebble": 3131,
      "Pet": 3132,
      "destroy": 3133,
      "planet": 3134,
      "eraser": 3135,
      "returned": 3136,
      "pour": 3137,
      "graceful": 3138,
      "Lulu": 3139,
      "happening": 3140,
      "lying": 3141,
      "learning": 3142,
      "decide": 3143,
      "urse": 3144,
      "nicely": 3145,
      "leopar": 3146,
      "cauliflower": 3147,
      "competitive": 3148,
      "poem": 3149,
      "celebrate": 3150,
      "keeper": 3151,
      "hun": 3152,
      "sau": 3153,
      "curt": 3154,
      "lk": 3155,
      "ignorant": 3156,
      "peach": 3157,
      "soldier": 3158,
      "sausage": 3159,
      "attractive": 3160,
      "zzy": 3161,
      "parade": 3162,
      "curtain": 3163,
      "catter": 3164,
      "glasses": 3165,
      "dolphin": 3166,
      "violin": 3167,
      "Car": 3168,
      "atient": 3169,
      "travel": 3170,
      "compassionate": 3171,
      "mes": 3172,
      "deter": 3173,
      "scatter": 3174,
      "base": 3175,
      "wheels": 3176,
      "yach": 3177,
      "ator": 3178,
      "Bye": 3179,
      "ud": 3180,
      "barrel": 3181,
      "Is": 3182,
      "envelope": 3183,
      "motorcycle": 3184,
      "Pete": 3185,
      "firework": 3186,
      "sort": 3187,
      "pit": 3188,
      "cob": 3189,
      "bulb": 3190,
      "question": 3191,
      "trap": 3192,
      "pho": 3193,
      "ither": 3194,
      "oat": 3195,
      "bin": 3196,
      "bubble": 3197,
      "scooter": 3198,
      "photo": 3199,
      "float": 3200,
      "father": 3201,
      "shells": 3202,
      "determin": 3203,
      "teas": 3204,
      "needle": 3205,
      "leopard": 3206,
      "tern": 3207,
      "perform": 3208,
      "yacht": 3209,
      "pony": 3210,
      "cricket": 3211,
      "hook": 3212,
      "cel": 3213,
      "truth": 3214,
      "dom": 3215,
      "ador": 3216,
      "homes": 3217,
      "Birdy": 3218,
      "igator": 3219,
      "uncle": 3220,
      "rem": 3221,
      "bushes": 3222,
      "grown": 3223,
      "spell": 3224,
      "Tina": 3225,
      "cushion": 3226,
      "guard": 3227,
      "tire": 3228,
      "cooked": 3229,
      "packed": 3230,
      "adorable": 3231,
      "Sp": 3232,
      "skin": 3233,
      "chalk": 3234,
      "purse": 3235,
      "celery": 3236,
      "impatient": 3237,
      "themselves": 3238,
      "tray": 3239,
      "pengu": 3240,
      "snif": 3241,
      "walls": 3242,
      "speak": 3243,
      "lively": 3244,
      "distant": 3245,
      "alligator": 3246,
      "radish": 3247,
      "meat": 3248,
      "saying": 3249,
      "prune": 3250,
      "city": 3251,
      "post": 3252,
      "spinning": 3253,
      "forth": 3254,
      "counting": 3255,
      "illa": 3256,
      "bounced": 3257,
      "cleaning": 3258,
      "marry": 3259,
      "slept": 3260,
      "Tweet": 3261,
      "thus": 3262,
      "metal": 3263,
      "enthus": 3264,
      "behave": 3265,
      "wallet": 3266,
      "film": 3267,
      "skip": 3268,
      "wiped": 3269,
      "impro": 3270,
      "biggest": 3271,
      "oy": 3272,
      "scr": 3273,
      "vator": 3274,
      "Well": 3275,
      "shut": 3276,
      "pole": 3277,
      "steak": 3278,
      "laughs": 3279,
      "pattern": 3280,
      "elevator": 3281,
      "edge": 3282,
      "dive": 3283,
      "courage": 3284,
      "Susie": 3285,
      "armchair": 3286,
      "unlock": 3287,
      "isted": 3288,
      "skipped": 3289,
      "nal": 3290,
      "bags": 3291,
      "diary": 3292,
      "az": 3293,
      "distur": 3294,
      "screw": 3295,
      "affe": 3296,
      "tap": 3297,
      "journal": 3298,
      "showing": 3299,
      "club": 3300,
      "gathered": 3301,
      "ject": 3302,
      "earth": 3303,
      "nurse": 3304,
      "seem": 3305,
      "sweater": 3306,
      "stranger": 3307,
      "jellyfish": 3308,
      "bulance": 3309,
      "bump": 3310,
      "chain": 3311,
      "notebook": 3312,
      "mixer": 3313,
      "lights": 3314,
      "skull": 3315,
      "ambulance": 3316,
      "aged": 3317,
      "shield": 3318,
      "ito": 3319,
      "loudly": 3320,
      "Rose": 3321,
      "wire": 3322,
      "folder": 3323,
      "loop": 3324,
      "library": 3325,
      "buttons": 3326,
      "nament": 3327,
      "hunter": 3328,
      "playground": 3329,
      "trucks": 3330,
      "squito": 3331,
      "kne": 3332,
      "tummy": 3333,
      "pointing": 3334,
      "decorate": 3335,
      "falls": 3336,
      "station": 3337,
      "gri": 3338,
      "cupboard": 3339,
      "herb": 3340,
      "fed": 3341,
      "ornament": 3342,
      "modest": 3343,
      "knows": 3344,
      "lives": 3345,
      "mosquito": 3346,
      "giraffe": 3347,
      "Lo": 3348,
      "oby": 3349,
      "attic": 3350,
      "sailor": 3351,
      "yet": 3352,
      "whenever": 3353,
      "disappeared": 3354,
      "once": 3355,
      "package": 3356,
      "strawberry": 3357,
      "ceed": 3358,
      "ribb": 3359,
      "drop": 3360,
      "steps": 3361,
      "brothers": 3362,
      "pirate": 3363,
      "Sunny": 3364,
      "People": 3365,
      "tear": 3366,
      "kele": 3367,
      "keleton": 3368,
      "hipp": 3369,
      "hall": 3370,
      "cli": 3371,
      "Miss": 3372,
      "topus": 3373,
      "stack": 3374,
      "driving": 3375,
      "support": 3376,
      "hippo": 3377,
      "calling": 3378,
      "cable": 3379,
      "repe": 3380,
      "split": 3381,
      "football": 3382,
      "fre": 3383,
      "lood": 3384,
      "tho": 3385,
      "coal": 3386,
      "poke": 3387,
      "aff": 3388,
      "complete": 3389,
      "wishes": 3390,
      "root": 3391,
      "tripped": 3392,
      "added": 3393,
      "Betty": 3394,
      "kayak": 3395,
      "octopus": 3396,
      "obile": 3397,
      "succeed": 3398,
      "reading": 3399,
      "determined": 3400,
      "?\".": 3401,
      "tomobile": 3402,
      "scope": 3403,
      "mild": 3404,
      "suggest": 3405,
      "repair": 3406,
      "kindness": 3407,
      "thunder": 3408,
      "rolling": 3409,
      "utes": 3410,
      "unk": 3411,
      "iastic": 3412,
      "automobile": 3413,
      "complain": 3414,
      "sneeze": 3415,
      "enthusiastic": 3416,
      "uring": 3417,
      "math": 3418,
      "yoga": 3419,
      "carto": 3420,
      "inde": 3421,
      "adow": 3422,
      "gor": 3423,
      "five": 3424,
      "send": 3425,
      "growl": 3426,
      "hive": 3427,
      "htub": 3428,
      "flea": 3429,
      "tress": 3430,
      "meadow": 3431,
      "drawer": 3432,
      "golf": 3433,
      "tro": 3434,
      "bathtub": 3435,
      "means": 3436,
      "skeleton": 3437,
      "chess": 3438,
      "sity": 3439,
      "veil": 3440,
      "Toby": 3441,
      "spend": 3442,
      "cups": 3443,
      "shel": 3444,
      "flame": 3445,
      "Pippin": 3446,
      "Bessie": 3447,
      "glowing": 3448,
      "troph": 3449,
      "Mar": 3450,
      "Zip": 3451,
      "oyster": 3452,
      "penny": 3453,
      "itself": 3454,
      "drawings": 3455,
      "vet": 3456,
      "switch": 3457,
      "pine": 3458,
      "ache": 3459,
      "sunglasses": 3460,
      "Snow": 3461,
      "stume": 3462,
      "costume": 3463,
      "dess": 3464,
      "powder": 3465,
      ",”": 3466,
      "pun": 3467,
      "muffin": 3468,
      "hedge": 3469,
      "pastry": 3470,
      "Did": 3471,
      "medal": 3472,
      "minutes": 3473,
      "makeup": 3474,
      "Un": 3475,
      "iron": 3476,
      "waffle": 3477,
      "aky": 3478,
      "handle": 3479,
      "maze": 3480,
      "telephone": 3481,
      "mattress": 3482,
      "son": 3483,
      "Rob": 3484,
      "shocked": 3485,
      "goal": 3486,
      "trophy": 3487,
      "knight": 3488,
      "spir": 3489,
      "missile": 3490,
      "separ": 3491,
      "Grandpa": 3492,
      "frame": 3493,
      "managed": 3494,
      "wife": 3495,
      "struc": 3496,
      "Spike": 3497,
      "eye": 3498,
      "zi": 3499,
      "magaz": 3500,
      "zebra": 3501,
      "ait": 3502,
      "grapes": 3503,
      "file": 3504,
      "camp": 3505,
      "cobweb": 3506,
      "rushed": 3507,
      "message": 3508,
      "wool": 3509,
      "bathe": 3510,
      "microphone": 3511,
      "chor": 3512,
      "leash": 3513,
      "either": 3514,
      "weep": 3515,
      "vend": 3516,
      "barking": 3517,
      "view": 3518,
      "basketball": 3519,
      "ature": 3520,
      "safely": 3521,
      "staff": 3522,
      "fee": 3523,
      "whist": 3524,
      "tol": 3525,
      "washer": 3526,
      "slides": 3527,
      "mp": 3528,
      "trem": 3529,
      "istol": 3530,
      "offee": 3531,
      "bananas": 3532,
      "hoc": 3533,
      "giggled": 3534,
      "those": 3535,
      "hockey": 3536,
      "gorilla": 3537,
      "Wait": 3538,
      "cooler": 3539,
      "urch": 3540,
      "spear": 3541,
      "mint": 3542,
      "fis": 3543,
      "early": 3544,
      "vendor": 3545,
      "Mrs": 3546,
      "marched": 3547,
      "tion": 3548,
      "grandpa": 3549,
      "flour": 3550,
      "Al": 3551,
      "hic": 3552,
      "sty": 3553,
      "remain": 3554,
      "hotel": 3555,
      "dessert": 3556,
      "gain": 3557,
      "pas": 3558,
      "cell": 3559,
      "vehic": 3560,
      "may": 3561,
      "ilot": 3562,
      "often": 3563,
      "Would": 3564,
      "church": 3565,
      "cooking": 3566,
      "uel": 3567,
      "pee": 3568,
      "ey": 3569,
      "otter": 3570,
      "fireman": 3571,
      "Kim": 3572,
      "tools": 3573,
      "organize": 3574,
      "pistol": 3575,
      "pretending": 3576,
      "dishwasher": 3577,
      "anchor": 3578,
      "sight": 3579,
      "temple": 3580,
      "thinking": 3581,
      "battery": 3582,
      "oil": 3583,
      "opens": 3584,
      "Teddy": 3585,
      "umb": 3586,
      "laser": 3587,
      "realised": 3588,
      "sne": 3589,
      "patch": 3590,
      "hours": 3591,
      "sandbox": 3592,
      "robe": 3593,
      "pilot": 3594,
      "spirit": 3595,
      "brea": 3596,
      "whip": 3597,
      "buck": 3598,
      "grill": 3599,
      "fac": 3600,
      "trash": 3601,
      "baseball": 3602,
      "suppl": 3603,
      "fort": 3604,
      "factory": 3605,
      "rhin": 3606,
      "short": 3607,
      "avail": 3608,
      "cardboard": 3609,
      "lotion": 3610,
      "wardro": 3611,
      "valu": 3612,
      "wardrobe": 3613,
      "ugged": 3614,
      "check": 3615,
      "hanging": 3616,
      "seum": 3617,
      "museum": 3618,
      "coffee": 3619,
      "blackboard": 3620,
      "shrink": 3621,
      "towers": 3622,
      "excitement": 3623,
      "reward": 3624,
      "picking": 3625,
      "passport": 3626,
      "napkin": 3627,
      "penguin": 3628,
      "dreamed": 3629,
      "quit": 3630,
      "Before": 3631,
      "xy": 3632,
      "available": 3633,
      "fauce": 3634,
      "laun": 3635,
      "stumbled": 3636,
      "igloo": 3637,
      "aroo": 3638,
      "angaroo": 3639,
      "juicy": 3640,
      "allowed": 3641,
      "holds": 3642,
      "tornado": 3643,
      "already": 3644,
      "Everywhere": 3645,
      "sla": 3646,
      "novel": 3647,
      "beep": 3648,
      "fingers": 3649,
      "htray": 3650,
      "size": 3651,
      "hanger": 3652,
      "chim": 3653,
      "faucet": 3654,
      "ense": 3655,
      "laundry": 3656,
      "chimney": 3657,
      "oak": 3658,
      "fisher": 3659,
      "telling": 3660,
      "kangaroo": 3661,
      "ately": 3662,
      "gging": 3663,
      "aid": 3664,
      "mummy": 3665,
      "cherries": 3666,
      "mule": 3667,
      "practice": 3668,
      "notice": 3669,
      "spilled": 3670,
      "imagine": 3671,
      "reinde": 3672,
      "wander": 3673,
      "microscope": 3674,
      "enjoying": 3675,
      "hut": 3676,
      "snap": 3677,
      "por": 3678,
      "Mandy": 3679,
      "hurry": 3680,
      "sub": 3681,
      "anda": 3682,
      "weigh": 3683,
      "Co": 3684,
      "fastest": 3685,
      "fireplace": 3686,
      "magazine": 3687,
      "ocero": 3688,
      "bel": 3689,
      "cabinet": 3690,
      "cheer": 3691,
      "listening": 3692,
      "doors": 3693,
      "ashtray": 3694,
      "bathrobe": 3695,
      "rake": 3696,
      "umber": 3697,
      "cows": 3698,
      "improve": 3699,
      "palace": 3700,
      "reindeer": 3701,
      "arian": 3702,
      "colour": 3703,
      "falling": 3704,
      "oceros": 3705,
      "skirt": 3706,
      "discovered": 3707,
      "blin": 3708,
      "enny": 3709,
      "stared": 3710,
      "roared": 3711,
      "Dolly": 3712,
      "miner": 3713,
      "memor": 3714,
      "silver": 3715,
      "trail": 3716,
      "bill": 3717,
      "stretched": 3718,
      "vision": 3719,
      "iction": 3720,
      "toile": 3721,
      "fog": 3722,
      "happier": 3723,
      "taller": 3724,
      "oats": 3725,
      "ictionary": 3726,
      "object": 3727,
      "valuable": 3728,
      "fisherman": 3729,
      "shamp": 3730,
      "shampoo": 3731,
      "ire": 3732,
      "holes": 3733,
      "opera": 3734,
      "boots": 3735,
      "offered": 3736,
      "rhinoceros": 3737,
      "toilet": 3738,
      "climbing": 3739,
      "names": 3740,
      "vice": 3741,
      "Frog": 3742,
      "mineral": 3743,
      "perfu": 3744,
      "fuel": 3745,
      "zipper": 3746,
      "gn": 3747,
      "Or": 3748,
      "jewelry": 3749,
      "reverse": 3750,
      "jokes": 3751,
      "television": 3752,
      "sym": 3753,
      "axe": 3754,
      "raz": 3755,
      "calend": 3756,
      "stops": 3757,
      "perfume": 3758,
      "jumps": 3759,
      "sparkly": 3760,
      "bury": 3761,
      "pressed": 3762,
      "razor": 3763,
      "zer": 3764,
      "super": 3765,
      "rece": 3766,
      "bol": 3767,
      "dictionary": 3768,
      "attach": 3769,
      "sses": 3770,
      "int": 3771,
      "neat": 3772,
      "creek": 3773,
      "popped": 3774,
      "zag": 3775,
      "calendar": 3776,
      "gasped": 3777,
      "resist": 3778,
      "tuna": 3779,
      "Pandy": 3780,
      "papers": 3781,
      "unpack": 3782,
      "symbol": 3783,
      "subway": 3784,
      "pinch": 3785,
      "letters": 3786,
      "gear": 3787,
      "freezer": 3788,
      "chose": 3789,
      "Ouch": 3790,
      "spoke": 3791,
      "anyway": 3792,
      "bikes": 3793,
      "helper": 3794,
      "porch": 3795,
      "ival": 3796,
      "wic": 3797,
      "wiches": 3798,
      "tightly": 3799,
      "aur": 3800,
      "shaking": 3801,
      "ended": 3802,
      "sandwiches": 3803,
      "billboard": 3804,
      "incl": 3805,
      "igzag": 3806,
      "against": 3807,
      "restaur": 3808,
      "newspaper": 3809,
      "stickers": 3810,
      "blouse": 3811,
      "bookcase": 3812,
      "swinging": 3813,
      "vehicle": 3814,
      "nature": 3815,
      "squirrels": 3816,
      "belongs": 3817,
      "lic": 3818,
      "growing": 3819,
      "buckle": 3820,
      "butterflies": 3821,
      "restaurant": 3822,
      "gym": 3823,
      "swamp": 3824,
      "stirred": 3825,
      "mustache": 3826,
      "cards": 3827,
      "hate": 3828,
      "lightning": 3829,
      "fest": 3830,
      "reco": 3831,
      "Ellie": 3832,
      "distance": 3833,
      "discover": 3834,
      "disturb": 3835,
      "recogn": 3836,
      "poon": 3837,
      "sof": 3838,
      "beef": 3839,
      "festival": 3840,
      "doesn": 3841,
      "ik": 3842,
      "musician": 3843,
      "advice": 3844,
      "cted": 3845,
      "rubber": 3846,
      "noon": 3847,
      "drain": 3848,
      "alarm": 3849,
      "Dave": 3850,
      "sweetie": 3851,
      "crib": 3852,
      "surf": 3853,
      "model": 3854,
      "comm": 3855,
      "separate": 3856,
      "tutor": 3857,
      "blueberries": 3858,
      "apr": 3859,
      "circles": 3860,
      "sofa": 3861,
      "breakfast": 3862,
      "arry": 3863,
      "shelter": 3864,
      "asis": 3865,
      "mall": 3866,
      "airport": 3867,
      "tease": 3868,
      "Red": 3869,
      "ured": 3870,
      "Bubb": 3871,
      "ummer": 3872,
      "These": 3873,
      "Spe": 3874,
      "knob": 3875,
      "bookshelf": 3876,
      "frogs": 3877,
      "lands": 3878,
      "riding": 3879,
      "junk": 3880,
      "Johnny": 3881,
      "pleased": 3882,
      "lend": 3883,
      "Bill": 3884,
      "oasis": 3885,
      "wipe": 3886,
      "display": 3887,
      "soil": 3888,
      "resc": 3889,
      "squeeze": 3890,
      "rescue": 3891,
      "ahead": 3892,
      "pedal": 3893,
      "rail": 3894,
      "leaving": 3895,
      "ination": 3896,
      "Bow": 3897,
      "quiz": 3898,
      "painter": 3899,
      "chance": 3900,
      "poked": 3901,
      "tub": 3902,
      "peeked": 3903,
      "lumber": 3904,
      "trains": 3905,
      "disappear": 3906,
      "knock": 3907,
      "extra": 3908,
      "refused": 3909,
      "ometer": 3910,
      "mometer": 3911,
      "dar": 3912,
      "point": 3913,
      "repeat": 3914,
      "rules": 3915,
      "happens": 3916,
      "sounded": 3917,
      "ga": 3918,
      "Boun": 3919,
      "winter": 3920,
      "dancer": 3921,
      "birdcage": 3922,
      "ost": 3923,
      "waste": 3924,
      "teaspoon": 3925,
      "weather": 3926,
      "comfort": 3927,
      "theater": 3928,
      "reef": 3929,
      "carrying": 3930,
      "invite": 3931,
      "trade": 3932,
      "swung": 3933,
      "uniform": 3934,
      "cliff": 3935,
      "Have": 3936,
      "accept": 3937,
      "lawn": 3938,
      "Jazz": 3939,
      "lab": 3940,
      "leaned": 3941,
      "uage": 3942,
      "anguage": 3943,
      "admi": 3944,
      "oph": 3945,
      "planes": 3946,
      "dreaming": 3947,
      "Soph": 3948,
      "task": 3949,
      "Lee": 3950,
      "accidentally": 3951,
      "pastel": 3952,
      "language": 3953,
      "remove": 3954,
      "erator": 3955,
      "suff": 3956,
      "peek": 3957,
      "license": 3958,
      "twir": 3959,
      "panda": 3960,
      "Buzzy": 3961,
      "frig": 3962,
      "frigerator": 3963,
      "mas": 3964,
      "summer": 3965,
      "Pat": 3966,
      "blinked": 3967,
      "starts": 3968,
      "refrigerator": 3969,
      "anywhere": 3970,
      "!\".": 3971,
      "imagined": 3972,
      "grand": 3973,
      "Big": 3974,
      "shower": 3975,
      "adm": 3976,
      "caring": 3977,
      "ceiling": 3978,
      "classroom": 3979,
      "stable": 3980,
      "admire": 3981,
      "thermometer": 3982,
      "bove": 3983,
      "missing": 3984,
      "Whe": 3985,
      "Sun": 3986,
      "warned": 3987,
      "monkeys": 3988,
      "wine": 3989,
      "Ru": 3990,
      "ium": 3991,
      "brick": 3992,
      "Lola": 3993,
      "above": 3994,
      "enter": 3995,
      "aced": 3996,
      "respectful": 3997,
      "Binky": 3998,
      "cudd": 3999,
      "problems": 4000,
      "strugg": 4001,
      "chasing": 4002,
      "Freddy": 4003,
      "apron": 4004,
      "lawy": 4005,
      "iture": 4006,
      "urniture": 4007,
      "reg": 4008,
      "freeze": 4009,
      "uggage": 4010,
      "furniture": 4011,
      "zoomed": 4012,
      "frowned": 4013,
      "handed": 4014,
      "pages": 4015,
      "luggage": 4016,
      "bent": 4017,
      "label": 4018,
      "Eventually": 4019,
      "aked": 4020,
      "sunset": 4021,
      "jail": 4022,
      "ostrich": 4023,
      "alley": 4024,
      "mistakes": 4025,
      "ison": 4026,
      "suggested": 4027,
      "windows": 4028,
      "older": 4029,
      "lions": 4030,
      "cur": 4031,
      "ribbon": 4032,
      "shouts": 4033,
      "grape": 4034,
      "spoil": 4035,
      "Ge": 4036,
      "unite": 4037,
      "structure": 4038,
      "chamber": 4039,
      "fixing": 4040,
      "delay": 4041,
      "fant": 4042,
      "finds": 4043,
      "searching": 4044,
      "Geor": 4045,
      "tick": 4046,
      "fought": 4047,
      "surre": 4048,
      "lawyer": 4049,
      "yield": 4050,
      "ady": 4051,
      "brightly": 4052,
      "meeting": 4053,
      "choice": 4054,
      "incre": 4055,
      "surprises": 4056,
      "terin": 4057,
      "favour": 4058,
      "adium": 4059,
      "fresh": 4060,
      "terinarian": 4061,
      "stadium": 4062,
      "veterinarian": 4063,
      "proudly": 4064,
      "iki": 4065,
      "veal": 4066,
      "chairs": 4067,
      "ations": 4068,
      "Carl": 4069,
      "sadly": 4070,
      "Olive": 4071,
      "fro": 4072,
      "Speedy": 4073,
      "introd": 4074,
      "puddles": 4075,
      "reveal": 4076,
      "ranch": 4077,
      "argue": 4078,
      "Char": 4079,
      "admired": 4080,
      "steam": 4081,
      "favourite": 4082,
      "excitedly": 4083,
      "saving": 4084,
      "grabs": 4085,
      "Mike": 4086,
      "human": 4087,
      "Lilly": 4088,
      "leak": 4089,
      "oh": 4090,
      "Bubbles": 4091,
      "George": 4092,
      "pushing": 4093,
      "appla": 4094,
      "ized": 4095,
      "recomm": 4096,
      "reminded": 4097,
      "regret": 4098,
      "ues": 4099,
      "Wo": 4100,
      "weap": 4101,
      "wigg": 4102,
      "apo": 4103,
      "cuss": 4104,
      "castles": 4105,
      "putting": 4106,
      "valley": 4107,
      "Wel": 4108,
      "evening": 4109,
      "matches": 4110,
      "forgave": 4111,
      "Welcome": 4112,
      "supply": 4113,
      "sneezed": 4114,
      "pup": 4115,
      "vy": 4116,
      "chan": 4117,
      "discuss": 4118,
      "vroom": 4119,
      "spade": 4120,
      "cared": 4121,
      "plates": 4122,
      "Pau": 4123,
      "ignore": 4124,
      "harbor": 4125,
      "prepare": 4126,
      "country": 4127,
      "pulls": 4128,
      "Zoomy": 4129,
      "replace": 4130,
      "restore": 4131,
      "plastic": 4132,
      "raise": 4133,
      "sniffed": 4134,
      "given": 4135,
      "meas": 4136,
      "shovel": 4137,
      "Ho": 4138,
      "cartoon": 4139,
      "prevent": 4140,
      "mystery": 4141,
      "socks": 4142,
      "Kiki": 4143,
      "Because": 4144,
      "Ready": 4145,
      "Under": 4146,
      "wre": 4147,
      "sticker": 4148,
      "sudden": 4149,
      "slipper": 4150,
      "ience": 4151,
      "ighted": 4152,
      "kinds": 4153,
      "slippery": 4154,
      "player": 4155,
      "panic": 4156,
      "hoping": 4157,
      "ricane": 4158,
      "shone": 4159,
      "gro": 4160,
      "rained": 4161,
      "Boo": 4162,
      "superhero": 4163,
      "ase": 4164,
      "delighted": 4165,
      "Yay": 4166,
      "surrender": 4167,
      "chickens": 4168,
      "shoulder": 4169,
      "colourful": 4170,
      "gran": 4171,
      "claw": 4172,
      "Yuck": 4173,
      "softly": 4174,
      "liday": 4175,
      "holiday": 4176,
      "Dog": 4177,
      "throwing": 4178,
      "ines": 4179,
      "shakes": 4180,
      "barks": 4181,
      "kneel": 4182,
      "sunrise": 4183,
      "keeping": 4184,
      "shivering": 4185,
      "applaud": 4186,
      "ason": 4187,
      "pushes": 4188,
      "Alex": 4189,
      "thanks": 4190,
      "ude": 4191,
      "suffer": 4192,
      "image": 4193,
      "points": 4194,
      "infant": 4195,
      "beg": 4196,
      "tip": 4197,
      "lect": 4198,
      "Cl": 4199,
      "expec": 4200,
      "Danny": 4201,
      "giggle": 4202,
      "Grace": 4203,
      "Shar": 4204,
      "imed": 4205,
      "copper": 4206,
      "heads": 4207,
      "End": 4208,
      "apolog": 4209,
      "smells": 4210,
      "Happ": 4211,
      "dear": 4212,
      "Bee": 4213,
      "provide": 4214,
      "chanic": 4215,
      "warning": 4216,
      "dishes": 4217,
      "hurricane": 4218,
      "cherry": 4219,
      "menu": 4220,
      "thumb": 4221,
      "second": 4222,
      "meowed": 4223,
      "brighter": 4224,
      "Joey": 4225,
      "ince": 4226,
      "event": 4227,
      "poison": 4228,
      "mechanic": 4229,
      "cakes": 4230,
      "weapon": 4231,
      "sprayed": 4232,
      "letting": 4233,
      "laught": 4234,
      "Hoppy": 4235,
      "laughter": 4236,
      "clapping": 4237,
      "rec": 4238,
      "feelings": 4239,
      "hy": 4240,
      "score": 4241,
      "icky": 4242,
      "splashing": 4243,
      "rooms": 4244,
      "universe": 4245,
      "iest": 4246,
      "navy": 4247,
      "Happy": 4248,
      "sticky": 4249,
      "Sophie": 4250,
      "Gig": 4251,
      "perm": 4252,
      "Paul": 4253,
      "Woof": 4254,
      "unhappy": 4255,
      "cation": 4256,
      "Gigi": 4257,
      "dare": 4258,
      "massage": 4259,
      "Sque": 4260,
      "greedy": 4261,
      "coats": 4262,
      "ener": 4263,
      "Su": 4264,
      "bend": 4265,
      "alive": 4266,
      "Qu": 4267,
      "mand": 4268,
      "breaks": 4269,
      "crash": 4270,
      "demand": 4271,
      "sie": 4272,
      "Hen": 4273,
      "invit": 4274,
      "Annie": 4275,
      "ating": 4276,
      "wreck": 4277,
      "swee": 4278,
      "sigh": 4279,
      "trusted": 4280,
      "eaten": 4281,
      "somewhere": 4282,
      "punish": 4283,
      "permit": 4284,
      "Mag": 4285,
      "examine": 4286,
      "Charlie": 4287,
      "skill": 4288,
      "parts": 4289,
      "versity": 4290,
      "delight": 4291,
      "brain": 4292,
      "mention": 4293,
      "raining": 4294,
      "chirp": 4295,
      "Henry": 4296,
      "slip": 4297,
      "erc": 4298,
      "nes": 4299,
      "throws": 4300,
      "toe": 4301,
      "jogged": 4302,
      "strip": 4303,
      "starting": 4304,
      "university": 4305,
      "pirates": 4306,
      "drops": 4307,
      "request": 4308,
      "flapped": 4309,
      "Snowy": 4310,
      "Sk": 4311,
      "sparkled": 4312,
      "boo": 4313,
      "streng": 4314,
      "steel": 4315,
      "bumped": 4316,
      "yawned": 4317,
      "scold": 4318,
      "equ": 4319,
      "myself": 4320,
      "strength": 4321,
      "shrugged": 4322,
      "theart": 4323,
      "Lucky": 4324,
      "paid": 4325,
      "exerc": 4326,
      "pigs": 4327,
      "scratch": 4328,
      "tracks": 4329,
      "impressed": 4330,
      "upstairs": 4331,
      "prayed": 4332,
      "danger": 4333,
      "crossed": 4334,
      "squeezed": 4335,
      "bouncing": 4336,
      "breathe": 4337,
      "rhy": 4338,
      "rabbits": 4339,
      "badly": 4340,
      "leather": 4341,
      "expect": 4342,
      "snugg": 4343,
      "..": 4344,
      "tide": 4345,
      "choo": 4346,
      "Elly": 4347,
      "Finny": 4348,
      "ix": 4349,
      "recommend": 4350,
      "minute": 4351,
      "Finn": 4352,
      "history": 4353,
      "tour": 4354,
      "espec": 4355,
      "bears": 4356,
      "claws": 4357,
      "sweetheart": 4358,
      "nation": 4359,
      "flood": 4360,
      "heat": 4361,
      "content": 4362,
      "stud": 4363,
      "settle": 4364,
      "thm": 4365,
      "vacation": 4366,
      "observe": 4367,
      "strawberries": 4368,
      "explored": 4369,
      "yawn": 4370,
      "mare": 4371,
      "sandcastle": 4372,
      "Coco": 4373,
      "horses": 4374,
      "neighb": 4375,
      "ially": 4376,
      "believed": 4377,
      "checked": 4378,
      "network": 4379,
      "Fox": 4380,
      "inking": 4381,
      "placed": 4382,
      "cheek": 4383,
      "offer": 4384,
      "Tilly": 4385,
      "Harry": 4386,
      "bling": 4387,
      "First": 4388,
      "easily": 4389,
      "Not": 4390,
      "safar": 4391,
      "mission": 4392,
      "spots": 4393,
      "nightmare": 4394,
      "ffic": 4395,
      "ween": 4396,
      "energy": 4397,
      "imagination": 4398,
      "blueberry": 4399,
      "between": 4400,
      "daisy": 4401,
      "soak": 4402,
      "waving": 4403,
      "twisted": 4404,
      "Penny": 4405,
      "safari": 4406,
      "rhythm": 4407,
      "counter": 4408,
      "quake": 4409,
      "Pa": 4410,
      "writing": 4411,
      "baking": 4412,
      "Owl": 4413,
      "blowing": 4414,
      "entered": 4415,
      "insisted": 4416,
      "muscle": 4417,
      "palm": 4418,
      "beauty": 4419,
      "stomach": 4420,
      "bother": 4421,
      "prunes": 4422,
      "ipment": 4423,
      "poppy": 4424,
      "hills": 4425,
      "equipment": 4426,
      "ddy": 4427,
      "especially": 4428,
      "burned": 4429,
      "cky": 4430,
      "sir": 4431,
      "ingred": 4432,
      "calls": 4433,
      "earthquake": 4434,
      "ingredient": 4435,
      "ignored": 4436,
      "nobody": 4437,
      "tug": 4438,
      "hood": 4439,
      "exper": 4440,
      "Maria": 4441,
      "Whenever": 4442,
      "Mill": 4443,
      "afternoon": 4444,
      "Goodbye": 4445,
      "xygen": 4446,
      "hearts": 4447,
      "increase": 4448,
      "Zara": 4449,
      "lemonade": 4450,
      "learnt": 4451,
      "Ju": 4452,
      "napped": 4453,
      "tremble": 4454,
      "backpack": 4455,
      "mailman": 4456,
      "whistled": 4457,
      "shopkeeper": 4458,
      "yucky": 4459,
      "moves": 4460,
      "sting": 4461,
      "introduce": 4462,
      "strike": 4463,
      "beans": 4464,
      "lemons": 4465,
      "ris": 4466,
      "include": 4467,
      "Mitten": 4468,
      "floated": 4469,
      "folded": 4470,
      "Wed": 4471,
      "Wednes": 4472,
      "Froggy": 4473,
      "traffic": 4474,
      "planned": 4475,
      "Sharing": 4476,
      "rested": 4477,
      "Mittens": 4478,
      "Squeaky": 4479,
      "wisdom": 4480,
      "price": 4481,
      "racing": 4482,
      "Sur": 4483,
      "luck": 4484,
      "Sandy": 4485,
      "wags": 4486,
      "excla": 4487,
      "pitch": 4488,
      "mama": 4489,
      "Sh": 4490,
      "following": 4491,
      "Bounce": 4492,
      "encourage": 4493,
      "lip": 4494,
      "heel": 4495,
      "gling": 4496,
      "served": 4497,
      "below": 4498,
      "crow": 4499,
      "weight": 4500,
      "Gre": 4501,
      "slap": 4502,
      "buried": 4503,
      "exclaimed": 4504,
      "pted": 4505,
      "recognize": 4506,
      "follows": 4507,
      "ingredients": 4508,
      "prints": 4509,
      "candles": 4510,
      "bey": 4511,
      "allow": 4512,
      "marbles": 4513,
      "Millie": 4514,
      "urge": 4515,
      "Kate": 4516,
      "Remember": 4517,
      "oper": 4518,
      "apart": 4519,
      "growled": 4520,
      "Wednesday": 4521,
      "bang": 4522,
      "ptain": 4523,
      "closely": 4524,
      "hopes": 4525,
      "teaching": 4526,
      "Baby": 4527,
      "chore": 4528,
      "ler": 4529,
      "tch": 4530,
      "May": 4531,
      "zigzag": 4532,
      "James": 4533,
      "Follow": 4534,
      "pulling": 4535,
      "digg": 4536,
      "bouncy": 4537,
      "dresses": 4538,
      "further": 4539,
      "chewed": 4540,
      "digging": 4541,
      "winning": 4542,
      "Pinky": 4543,
      "riage": 4544,
      "twis": 4545,
      "ifi": 4546,
      "solved": 4547,
      "Pip": 4548,
      "cery": 4549,
      "gie": 4550,
      "shouting": 4551,
      "grocery": 4552,
      "twisty": 4553,
      "attent": 4554,
      "peanuts": 4555,
      "puzzles": 4556,
      "Bluey": 4557,
      "scrat": 4558,
      "Tony": 4559,
      "worms": 4560,
      "chores": 4561,
      "dressed": 4562,
      "operation": 4563,
      "snail": 4564,
      "spike": 4565,
      "hon": 4566,
      "acorns": 4567,
      "izes": 4568,
      "Papa": 4569,
      "deeper": 4570,
      "Fifi": 4571,
      "planted": 4572,
      "exercise": 4573,
      "wink": 4574,
      "attention": 4575,
      "lecture": 4576,
      "Ruby": 4577,
      "oxygen": 4578,
      "underground": 4579,
      "quite": 4580,
      "creatures": 4581,
      "marriage": 4582,
      "struggle": 4583,
      "Everything": 4584,
      "argu": 4585,
      "washing": 4586,
      "vanished": 4587,
      "hurting": 4588,
      "gifts": 4589,
      "invitation": 4590,
      "licks": 4591,
      "snuggled": 4592,
      "jazz": 4593,
      "petal": 4594,
      "quietly": 4595,
      "disagree": 4596,
      "awe": 4597,
      "blood": 4598,
      "Liz": 4599,
      "elephants": 4600,
      "reci": 4601,
      "fallen": 4602,
      "release": 4603,
      "dried": 4604,
      "poss": 4605,
      "sizes": 4606,
      "landscape": 4607,
      "sprink": 4608,
      "neighbour": 4609,
      "exit": 4610,
      "mice": 4611,
      "Tues": 4612,
      "appreci": 4613,
      "Sunday": 4614,
      "sailing": 4615,
      "eagerly": 4616,
      "ooped": 4617,
      "paused": 4618,
      "vanish": 4619,
      "Uncle": 4620,
      "worth": 4621,
      "Surpr": 4622,
      "aking": 4623,
      "ashion": 4624,
      "style": 4625,
      "Ste": 4626,
      "shined": 4627,
      "reaches": 4628,
      "mm": 4629,
      "atta": 4630,
      "kisses": 4631,
      "Sm": 4632,
      "bricks": 4633,
      "ideas": 4634,
      "plays": 4635,
      "Wigg": 4636,
      "wob": 4637,
      "balan": 4638,
      "fireworks": 4639,
      "seeing": 4640,
      "Yum": 4641,
      "ucked": 4642,
      "blink": 4643,
      "accepted": 4644,
      "fashion": 4645,
      "stra": 4646,
      "memory": 4647,
      "muddy": 4648,
      "resp": 4649,
      "married": 4650,
      "ups": 4651,
      "Each": 4652,
      "tomatoes": 4653,
      "reeze": 4654,
      "Rosie": 4655,
      "nce": 4656,
      "wagging": 4657,
      "wandered": 4658,
      "manage": 4659,
      "Clara": 4660,
      "Watch": 4661,
      "gloves": 4662,
      "captain": 4663,
      "rang": 4664,
      "receive": 4665,
      "pillows": 4666,
      "lick": 4667,
      "during": 4668,
      "zipped": 4669,
      "petals": 4670,
      "watered": 4671,
      "Mo": 4672,
      "famil": 4673,
      "meow": 4674,
      "God": 4675,
      "couraged": 4676,
      "pinched": 4677,
      "brings": 4678,
      "Ke": 4679,
      "Spark": 4680,
      "printer": 4681,
      "shot": 4682,
      "destroyed": 4683,
      "treasures": 4684,
      "bones": 4685,
      "Che": 4686,
      "hers": 4687,
      "Tuesday": 4688,
      "catching": 4689,
      "hadn": 4690,
      "worse": 4691,
      "hi": 4692,
      "beam": 4693,
      "Wiggly": 4694,
      "hits": 4695,
      "aches": 4696,
      "xu": 4697,
      "scattered": 4698,
      "velvet": 4699,
      "memories": 4700,
      "sorts": 4701,
      "toes": 4702,
      "Kat": 4703,
      "scolded": 4704,
      "pears": 4705,
      "signs": 4706,
      "oranges": 4707,
      "Mor": 4708,
      "snapped": 4709,
      "sits": 4710,
      "seats": 4711,
      "gazed": 4712,
      "raised": 4713,
      "pies": 4714,
      "acked": 4715,
      "bby": 4716,
      "sliding": 4717,
      "luxu": 4718,
      "Beep": 4719,
      "baked": 4720,
      "Wally": 4721,
      "easier": 4722,
      "King": 4723,
      "skills": 4724,
      "llen": 4725,
      "rect": 4726,
      "climbs": 4727,
      "possible": 4728,
      "twirled": 4729,
      "ccer": 4730,
      "blankets": 4731,
      "forgotten": 4732,
      "omed": 4733,
      "zero": 4734,
      "sterday": 4735,
      "golden": 4736,
      "difference": 4737,
      "wed": 4738,
      "cutting": 4739,
      "kitty": 4740,
      "olive": 4741,
      "Ha": 4742,
      "Surprise": 4743,
      "season": 4744,
      "nowhere": 4745,
      "Tuna": 4746,
      "bru": 4747,
      "lung": 4748,
      "soccer": 4749,
      "ys": 4750,
      "dared": 4751,
      "emer": 4752,
      "bites": 4753,
      "Slow": 4754,
      "Zo": 4755,
      "beha": 4756,
      "Maggie": 4757,
      "celebrated": 4758,
      "Hop": 4759,
      "ah": 4760,
      "Out": 4761,
      "padd": 4762,
      "nies": 4763,
      "straight": 4764,
      "sters": 4765,
      "west": 4766,
      "unlocked": 4767,
      "Moral": 4768,
      "sorting": 4769,
      "bleed": 4770,
      "collected": 4771,
      "comed": 4772,
      "welcomed": 4773,
      "stitch": 4774,
      "spoons": 4775,
      "visited": 4776,
      "Ok": 4777,
      "jogging": 4778,
      "medi": 4779,
      "warn": 4780,
      "tore": 4781,
      "buzz": 4782,
      "recei": 4783,
      "isn": 4784,
      "mediately": 4785,
      "bur": 4786,
      "ruin": 4787,
      "trave": 4788,
      "winner": 4789,
      "luxury": 4790,
      "since": 4791,
      "ipping": 4792,
      "fortun": 4793,
      "Din": 4794,
      "bab": 4795,
      "imple": 4796,
      "prepar": 4797,
      "Meow": 4798,
      "attached": 4799,
      "weeping": 4800,
      "Suzy": 4801,
      "marching": 4802,
      "simple": 4803,
      "shouldn": 4804,
      "Both": 4805,
      "guessed": 4806,
      "pets": 4807,
      "created": 4808,
      "Smith": 4809,
      "stuffed": 4810,
      "vic": 4811,
      "waist": 4812,
      "urged": 4813,
      "bowed": 4814,
      "selling": 4815,
      "Someone": 4816,
      "floating": 4817,
      "kingdom": 4818,
      "olives": 4819,
      "Always": 4820,
      "kicking": 4821,
      "punished": 4822,
      "Dr": 4823,
      "printed": 4824,
      "muscles": 4825,
      "jewels": 4826,
      "uses": 4827,
      "beds": 4828,
      "understanding": 4829,
      "melted": 4830,
      "lined": 4831,
      "lets": 4832,
      "perfor": 4833,
      "slice": 4834,
      "grin": 4835,
      "offic": 4836,
      "collection": 4837,
      "measured": 4838,
      "fortunately": 4839,
      "trapped": 4840,
      "omeday": 4841,
      "grant": 4842,
      "gers": 4843,
      "acted": 4844,
      "encouraged": 4845,
      "iers": 4846,
      "received": 4847,
      "waffles": 4848,
      "resu": 4849,
      "sip": 4850,
      "patterns": 4851,
      "mouths": 4852,
      "ents": 4853,
      "kins": 4854,
      "hest": 4855,
      "peaches": 4856,
      "breeze": 4857,
      "six": 4858,
      "soldiers": 4859,
      "chy": 4860,
      "someday": 4861,
      "potatoes": 4862,
      "Stay": 4863,
      "result": 4864,
      "pupil": 4865,
      "Toto": 4866,
      "drinks": 4867,
      "presents": 4868,
      "experience": 4869,
      "flap": 4870,
      "none": 4871,
      "ging": 4872,
      "Rocky": 4873,
      "appro": 4874,
      "surround": 4875,
      "victory": 4876,
      "voices": 4877,
      "drinking": 4878,
      "breaking": 4879,
      "relaxed": 4880,
      "paints": 4881,
      "fetch": 4882,
      "twink": 4883,
      "hurried": 4884,
      "tongue": 4885,
      "stumes": 4886,
      "Chicky": 4887,
      "Pepper": 4888,
      "bak": 4889,
      "costumes": 4890,
      "mentioned": 4891,
      "teasing": 4892,
      "whistling": 4893,
      "begged": 4894,
      "permission": 4895,
      "disagreed": 4896,
      "flat": 4897,
      "pearl": 4898,
      "Like": 4899,
      "lips": 4900,
      "cus": 4901,
      "skipping": 4902,
      "Its": 4903,
      "fishing": 4904,
      "sniff": 4905,
      "highest": 4906,
      "sorted": 4907,
      "ringing": 4908,
      "watches": 4909,
      "works": 4910,
      "aded": 4911,
      "tonight": 4912,
      "opin": 4913,
      "shadows": 4914,
      "crun": 4915,
      "Sky": 4916,
      "suppo": 4917,
      "perfectly": 4918,
      "immediately": 4919,
      "warmth": 4920,
      "herbs": 4921,
      "ruck": 4922,
      "Milly": 4923,
      "icing": 4924,
      "obey": 4925,
      "remained": 4926,
      "mbers": 4927,
      "Our": 4928,
      "sett": 4929,
      "sneak": 4930,
      "Dino": 4931,
      "emergen": 4932,
      "kneeled": 4933,
      "napping": 4934,
      "contest": 4935,
      "lines": 4936,
      "headed": 4937,
      "east": 4938,
      "ago": 4939,
      "cartoons": 4940,
      "colours": 4941,
      "stamps": 4942,
      "\",": 4943,
      "Bug": 4944,
      "rust": 4945,
      "sidewalk": 4946,
      "cones": 4947,
      "girls": 4948,
      "supposed": 4949,
      "roots": 4950,
      "mixing": 4951,
      "Pr": 4952,
      "members": 4953,
      "Rab": 4954,
      "melting": 4955,
      "Zigzag": 4956,
      "For": 4957,
      "decorations": 4958,
      "Keep": 4959,
      "Dav": 4960,
      "Frank": 4961,
      "Friend": 4962,
      "Ex": 4963,
      "sid": 4964,
      "lily": 4965,
      "Really": 4966,
      "setting": 4967,
      "utter": 4968,
      "laid": 4969,
      "succeeded": 4970,
      "wiggle": 4971,
      "Ye": 4972,
      "Thanks": 4973,
      "studied": 4974,
      "strangers": 4975,
      "shock": 4976,
      "twigs": 4977,
      "ding": 4978,
      "theirs": 4979,
      "However": 4980,
      "fields": 4981,
      "!\",": 4982,
      "screams": 4983,
      "ordered": 4984,
      "stirring": 4985,
      "Rabbit": 4986,
      "moments": 4987,
      "Something": 4988,
      "threat": 4989,
      "alright": 4990,
      "stealing": 4991,
      "bravely": 4992,
      "David": 4993,
      "mister": 4994,
      "!'": 4995,
      "invest": 4996,
      "playtime": 4997,
      "esca": 4998,
      "scratched": 4999,
      "ripped": 5000,
      "burning": 5001,
      "investig": 5002,
      "Steve": 5003,
      "tucked": 5004,
      "waits": 5005,
      "bun": 5006,
      "text": 5007,
      "Rac": 5008,
      "inch": 5009,
      "ishes": 5010,
      "bridges": 5011,
      "otion": 5012,
      "officer": 5013,
      "Je": 5014,
      "matched": 5015,
      "settled": 5016,
      "emergency": 5017,
      "Lizzy": 5018,
      "achie": 5019,
      "lap": 5020,
      "texture": 5021,
      "keys": 5022,
      "Hope": 5023,
      "turning": 5024,
      "nails": 5025,
      "Unfortunately": 5026,
      "Aunt": 5027,
      "trembling": 5028,
      "nie": 5029,
      "izard": 5030,
      "decis": 5031,
      "sore": 5032,
      "muffins": 5033,
      "escaped": 5034,
      "piles": 5035,
      "investigate": 5036,
      "silence": 5037,
      "babies": 5038,
      "admir": 5039,
      "Star": 5040,
      "appreciate": 5041,
      "Ray": 5042,
      "pupp": 5043,
      "sisters": 5044,
      "Slowly": 5045,
      "area": 5046,
      "dads": 5047,
      "answers": 5048,
      "chewing": 5049,
      "Katie": 5050,
      "slapped": 5051,
      "importance": 5052,
      "wizard": 5053,
      "safety": 5054,
      "broom": 5055,
      "iggy": 5056,
      "Put": 5057,
      "owned": 5058,
      "Abig": 5059,
      "Moo": 5060,
      "sparkle": 5061,
      "beat": 5062,
      "touching": 5063,
      "soared": 5064,
      "Abigail": 5065,
      "sings": 5066,
      "antly": 5067,
      "dam": 5068,
      "chip": 5069,
      "amaze": 5070,
      "quack": 5071,
      "Those": 5072,
      "brushes": 5073,
      "Squ": 5074,
      "ms": 5075,
      "amazement": 5076,
      "twin": 5077,
      "hesit": 5078,
      "revealed": 5079,
      "Rachel": 5080,
      "soaked": 5081,
      "writ": 5082,
      "keeps": 5083,
      "Leave": 5084,
      "Mmm": 5085,
      "foods": 5086,
      "dinosaurs": 5087,
      "rides": 5088,
      "recorded": 5089,
      "spaceship": 5090,
      "tickle": 5091,
      "trips": 5092,
      "curled": 5093,
      "glowed": 5094,
      "rr": 5095,
      "vor": 5096,
      "beamed": 5097,
      "ached": 5098,
      "hated": 5099,
      "ppers": 5100,
      "Zoe": 5101,
      "shopping": 5102,
      "direct": 5103,
      "eats": 5104,
      "Joy": 5105,
      "anna": 5106,
      "Spl": 5107,
      "praised": 5108,
      "wooden": 5109,
      "bringing": 5110,
      "studying": 5111,
      "mittens": 5112,
      "thri": 5113,
      "shooting": 5114,
      "includ": 5115,
      "crawling": 5116,
      "dot": 5117,
      "ids": 5118,
      "marks": 5119,
      "ruler": 5120,
      "downstairs": 5121,
      "tastes": 5122,
      "sprinkles": 5123,
      "cuddled": 5124,
      "Hold": 5125,
      "Ma": 5126,
      "fut": 5127,
      "collecting": 5128,
      "ib": 5129,
      "future": 5130,
      "monsters": 5131,
      "measuring": 5132,
      "ef": 5133,
      "'.": 5134,
      "families": 5135,
      "challen": 5136,
      "ising": 5137,
      "irts": 5138,
      "Yummy": 5139,
      "approached": 5140,
      "fy": 5141,
      "ladybug": 5142,
      "Jess": 5143,
      "crunchy": 5144,
      "leader": 5145,
      "tails": 5146,
      "disturbed": 5147,
      "bleeding": 5148,
      "remembers": 5149,
      "boom": 5150,
      "nicer": 5151,
      "sneaky": 5152,
      "isten": 5153,
      "snowball": 5154,
      "scaring": 5155,
      "peel": 5156,
      "Behind": 5157,
      "Splash": 5158,
      "motion": 5159,
      "Jam": 5160,
      "firemen": 5161,
      "Sad": 5162,
      "grey": 5163,
      "neighborhood": 5164,
      "Listen": 5165,
      "vi": 5166,
      "apologized": 5167,
      "weighed": 5168,
      "gained": 5169,
      "tickets": 5170,
      "naps": 5171,
      "woof": 5172,
      "loose": 5173,
      "pride": 5174,
      "youth": 5175,
      "worker": 5176,
      "strings": 5177,
      "Pippa": 5178,
      "behaved": 5179,
      "recognized": 5180,
      "Vel": 5181,
      "sire": 5182,
      "fied": 5183,
      "siren": 5184,
      "En": 5185,
      "poking": 5186,
      "tricked": 5187,
      "wonders": 5188,
      "Velvet": 5189,
      "wanting": 5190,
      "crashed": 5191,
      "struck": 5192,
      "Quick": 5193,
      "seesaw": 5194,
      "prepared": 5195,
      "draws": 5196,
      "Nan": 5197,
      "scooped": 5198,
      "zooming": 5199,
      ".'": 5200,
      "Robby": 5201,
      "rubbing": 5202,
      "opinion": 5203,
      "By": 5204,
      "acting": 5205,
      "respons": 5206,
      "yelling": 5207,
      "grinned": 5208,
      "doggy": 5209,
      "poems": 5210,
      "zes": 5211,
      "happiest": 5212,
      "chef": 5213,
      "Achoo": 5214,
      "Get": 5215,
      "sneaked": 5216,
      "fer": 5217,
      "Quack": 5218,
      "bunnies": 5219,
      "anytime": 5220,
      "lier": 5221,
      "sides": 5222,
      "zen": 5223,
      "pedals": 5224,
      "knelt": 5225,
      "Jan": 5226,
      "decorated": 5227,
      "secrets": 5228,
      "ena": 5229,
      "horns": 5230,
      "agreement": 5231,
      "rescu": 5232,
      "During": 5233,
      "tallest": 5234,
      "De": 5235,
      "bank": 5236,
      "sen": 5237,
      "decides": 5238,
      "Time": 5239,
      "goodnight": 5240,
      "tugged": 5241,
      "Stitch": 5242,
      "Spr": 5243,
      "ided": 5244,
      "challenge": 5245,
      "osity": 5246,
      "slim": 5247,
      "Exc": 5248,
      "sparkling": 5249,
      "chirped": 5250,
      "Bree": 5251,
      "precious": 5252,
      "Bad": 5253,
      "pause": 5254,
      "Green": 5255,
      "Thom": 5256,
      "Friends": 5257,
      "Birdie": 5258,
      "uggling": 5259,
      "Being": 5260,
      "loaded": 5261,
      "repeated": 5262,
      "claps": 5263,
      "snowballs": 5264,
      "contain": 5265,
      "indy": 5266,
      "Ava": 5267,
      "eight": 5268,
      "ourselves": 5269,
      "rs": 5270,
      "giraffes": 5271,
      "Bouncy": 5272,
      "Sn": 5273,
      "Dare": 5274,
      "balancing": 5275,
      "united": 5276,
      "Gogo": 5277,
      "kindly": 5278,
      "frozen": 5279,
      "alien": 5280,
      "spending": 5281,
      "writes": 5282,
      "comp": 5283,
      "Po": 5284,
      "flavor": 5285,
      "Thomas": 5286,
      "hissed": 5287,
      "frosting": 5288,
      "Two": 5289,
      "buzzing": 5290,
      "struggled": 5291,
      "Mi": 5292,
      "rele": 5293,
      "admiring": 5294,
      "sweeties": 5295,
      "Water": 5296,
      "slimy": 5297,
      "Olly": 5298,
      "brushed": 5299,
      "bloomed": 5300,
      "polished": 5301,
      "comfy": 5302,
      "powers": 5303,
      "Mouse": 5304,
      "Mir": 5305,
      "rings": 5306,
      "loving": 5307,
      "Fish": 5308,
      "staying": 5309,
      "folding": 5310,
      "Zero": 5311,
      "Julie": 5312,
      "rocking": 5313,
      "honk": 5314,
      "pockets": 5315,
      "Cla": 5316,
      "thrilled": 5317,
      "beside": 5318,
      "Kids": 5319,
      "machines": 5320,
      "earlier": 5321,
      "yesterday": 5322,
      "seems": 5323,
      "Wis": 5324,
      "traveled": 5325,
      "spraying": 5326,
      "hugging": 5327,
      "Wisdom": 5328,
      "cracked": 5329,
      "ities": 5330,
      "sew": 5331,
      "opening": 5332,
      "radishes": 5333,
      "curiosity": 5334,
      "circus": 5335,
      "surrounded": 5336,
      "tim": 5337,
      "gaze": 5338,
      "demanded": 5339,
      "paintings": 5340,
      "removed": 5341,
      "Beth": 5342,
      "Spring": 5343,
      "crumb": 5344,
      "pebbles": 5345,
      "Day": 5346,
      "hardly": 5347,
      "zookeeper": 5348,
      "catches": 5349,
      "pots": 5350,
      "stripes": 5351,
      "Jamie": 5352,
      "splashes": 5353,
      "deser": 5354,
      "cub": 5355,
      "petted": 5356,
      "urry": 5357,
      "matching": 5358,
      "ric": 5359,
      "aster": 5360,
      "cin": 5361,
      "toss": 5362,
      "stare": 5363,
      "belly": 5364,
      "tles": 5365,
      "Lou": 5366,
      "Fl": 5367,
      "whatever": 5368,
      "apologize": 5369,
      "Everyday": 5370,
      "rocked": 5371,
      "stron": 5372,
      "comforted": 5373,
      "Abby": 5374,
      "decision": 5375,
      "ribbons": 5376,
      "sled": 5377,
      "chases": 5378,
      "struggling": 5379,
      "stored": 5380,
      "expected": 5381,
      "roads": 5382,
      "protected": 5383,
      "steep": 5384,
      "Nina": 5385,
      "neighbors": 5386,
      "lied": 5387,
      "loe": 5388,
      "smiley": 5389,
      "granted": 5390,
      "diving": 5391,
      "Mon": 5392,
      "beard": 5393,
      "purred": 5394,
      "heroes": 5395,
      "sadness": 5396,
      "organizing": 5397,
      "disco": 5398,
      "stro": 5399,
      "eagle": 5400,
      "dipped": 5401,
      "sunlight": 5402,
      "pastels": 5403,
      "safer": 5404,
      "Take": 5405,
      "argued": 5406,
      "goals": 5407,
      "discovery": 5408,
      "peered": 5409,
      "villag": 5410,
      "shirts": 5411,
      "Chloe": 5412,
      "dragons": 5413,
      "buildings": 5414,
      "buckets": 5415,
      "parties": 5416,
      "cuts": 5417,
      "wedding": 5418,
      "flutter": 5419,
      "polishing": 5420,
      "planets": 5421,
      "fas": 5422,
      "smar": 5423,
      "Ear": 5424,
      "released": 5425,
      "refu": 5426,
      "crabs": 5427,
      "Hippy": 5428,
      "Silly": 5429,
      "Josh": 5430,
      "sausages": 5431,
      "bottles": 5432,
      "wiggled": 5433,
      "vies": 5434,
      "ads": 5435,
      "teased": 5436,
      "ley": 5437,
      "arguing": 5438,
      "dragged": 5439,
      "roaring": 5440,
      "movies": 5441,
      "clearing": 5442,
      "gathering": 5443,
      "actu": 5444,
      "Run": 5445,
      "Kay": 5446,
      "joyed": 5447,
      "Hanna": 5448,
      "teaches": 5449,
      "spiders": 5450,
      "limes": 5451,
      "cough": 5452,
      "overjoyed": 5453,
      "actually": 5454,
      "sighs": 5455,
      "caut": 5456,
      "continue": 5457,
      "Prin": 5458,
      "soaring": 5459,
      "cuddle": 5460,
      "smallest": 5461,
      "drives": 5462,
      "sparkles": 5463,
      "grandmother": 5464,
      "situ": 5465,
      "cubes": 5466,
      "rol": 5467,
      "Flo": 5468,
      "proper": 5469,
      "Bop": 5470,
      "len": 5471,
      "pouring": 5472,
      "prov": 5473,
      "pretends": 5474,
      "fascin": 5475,
      "mane": 5476,
      "peppers": 5477,
      "Catty": 5478,
      "quarreling": 5479,
      "shivered": 5480,
      "Jump": 5481,
      "stretching": 5482,
      "dusty": 5483,
      "ippy": 5484,
      "wondering": 5485,
      "villagers": 5486,
      "Enjoy": 5487,
      "weeks": 5488,
      "weed": 5489,
      "wherever": 5490,
      "darker": 5491,
      "youn": 5492,
      "company": 5493,
      "onwards": 5494,
      "iggling": 5495,
      "Oli": 5496,
      "tiest": 5497,
      "tions": 5498,
      "prettiest": 5499,
      "laying": 5500,
      "realize": 5501,
      "penguins": 5502,
      "Lena": 5503,
      "control": 5504,
      "stom": 5505,
      "bedtime": 5506,
      "completed": 5507,
      "Earth": 5508,
      "”.": 5509,
      "othing": 5510,
      "knights": 5511,
      "instruc": 5512,
      "flags": 5513,
      "dolph": 5514,
      "Chew": 5515,
      "actions": 5516,
      "shrug": 5517,
      "Love": 5518,
      "responsible": 5519,
      "playroom": 5520,
      "conf": 5521,
      "patience": 5522,
      "Anne": 5523,
      "learns": 5524,
      "gotten": 5525,
      "Squirrel": 5526,
      "inda": 5527,
      "Adam": 5528,
      "packing": 5529,
      "sobb": 5530,
      "kites": 5531,
      "Try": 5532,
      "die": 5533,
      "reply": 5534,
      "destination": 5535,
      "fault": 5536,
      "wires": 5537,
      "Uh": 5538,
      "wrist": 5539,
      "applauded": 5540,
      "Blink": 5541,
      "wins": 5542,
      "satis": 5543,
      "mountains": 5544,
      "scrubbed": 5545,
      "fears": 5546,
      "crept": 5547,
      "Mira": 5548,
      "rac": 5549,
      "wound": 5550,
      "third": 5551,
      "Brownie": 5552,
      "pencils": 5553,
      "Want": 5554,
      "aren": 5555,
      "baker": 5556,
      "sticking": 5557,
      "visiting": 5558,
      "peas": 5559,
      "ibb": 5560,
      "uct": 5561,
      "reminder": 5562,
      "awake": 5563,
      "ky": 5564,
      "Princess": 5565,
      "joking": 5566,
      "Hannah": 5567,
      "parked": 5568,
      "staring": 5569,
      "healed": 5570,
      "hitting": 5571,
      "Luck": 5572,
      "screaming": 5573,
      "begin": 5574,
      "acti": 5575,
      "icorn": 5576,
      "crumbs": 5577,
      "bie": 5578,
      "unicorn": 5579,
      "helmets": 5580,
      "Luckily": 5581,
      "shelves": 5582,
      "copy": 5583,
      "towels": 5584,
      "creation": 5585,
      "chips": 5586,
      "wasted": 5587,
      "masks": 5588,
      "Claire": 5589,
      "items": 5590,
      "nets": 5591,
      "chat": 5592,
      "agrees": 5593,
      "lollipops": 5594,
      "Hoot": 5595,
      "guns": 5596,
      "Dot": 5597,
      "firefight": 5598,
      "died": 5599,
      "glitter": 5600,
      "Jilly": 5601,
      "ilo": 5602,
      "ica": 5603,
      "Ah": 5604,
      "uddles": 5605,
      "nect": 5606,
      "arrive": 5607,
      "weren": 5608,
      "stole": 5609,
      "scales": 5610,
      "perched": 5611,
      "tune": 5612,
      "logs": 5613,
      "achieve": 5614,
      "practicing": 5615,
      "Ally": 5616,
      "whose": 5617,
      "Ball": 5618,
      "candies": 5619,
      "pumpkins": 5620,
      "instructions": 5621,
      "seven": 5622,
      "batteries": 5623,
      "snakes": 5624,
      "Foxy": 5625,
      "chirping": 5626,
      "wid": 5627,
      "Roar": 5628,
      "protecting": 5629,
      "exact": 5630,
      "El": 5631,
      "crowd": 5632,
      "Tree": 5633,
      "patiently": 5634,
      "activ": 5635,
      "shoulders": 5636,
      "videos": 5637,
      "promises": 5638,
      "blows": 5639,
      "yum": 5640,
      "faced": 5641,
      "airplane": 5642,
      "Susan": 5643,
      "cans": 5644,
      "ners": 5645,
      "jamas": 5646,
      "examined": 5647,
      "roses": 5648,
      "accompl": 5649,
      "Cra": 5650,
      "tasks": 5651,
      "Great": 5652,
      "project": 5653,
      "aws": 5654,
      "rubs": 5655,
      "Duck": 5656,
      "beads": 5657,
      "bowls": 5658,
      "Ja": 5659,
      "listens": 5660,
      "Jeff": 5661,
      "Cuddles": 5662,
      "requested": 5663,
      "bunch": 5664,
      "rolls": 5665,
      "dolphins": 5666,
      "dent": 5667,
      "ining": 5668,
      "guest": 5669,
      "scoop": 5670,
      "remote": 5671,
      "ops": 5672,
      "reaching": 5673,
      "improved": 5674,
      "dies": 5675,
      "stumble": 5676,
      "anta": 5677,
      "brand": 5678,
      "robb": 5679,
      "Dizzy": 5680,
      "Santa": 5681,
      "hunt": 5682,
      "cheering": 5683,
      "workers": 5684,
      "photos": 5685,
      "Fine": 5686,
      "filling": 5687,
      "leaning": 5688,
      "stern": 5689,
      "timer": 5690,
      "Luke": 5691,
      "replaced": 5692,
      "puppet": 5693,
      "adult": 5694,
      "neither": 5695,
      "Jessie": 5696,
      "passing": 5697,
      "eath": 5698,
      "misses": 5699,
      "tum": 5700,
      "curtains": 5701,
      "confli": 5702,
      "rainbows": 5703,
      "twirl": 5704,
      "Juli": 5705,
      "irm": 5706,
      "uctantly": 5707,
      "patted": 5708,
      "conflict": 5709,
      "pajamas": 5710,
      "outdoors": 5711,
      "complaining": 5712,
      "closes": 5713,
      "beneath": 5714,
      "drums": 5715,
      "hoo": 5716,
      "athy": 5717,
      "Trust": 5718,
      "fact": 5719,
      "sweat": 5720,
      "refuse": 5721,
      "angled": 5722,
      "balanced": 5723,
      "Nothing": 5724,
      "Fire": 5725,
      "Henny": 5726,
      "introduc": 5727,
      "...": 5728,
      "rescued": 5729,
      "neath": 5730,
      "quacked": 5731,
      "Days": 5732,
      "rip": 5733,
      "awesome": 5734,
      "trig": 5735,
      "effort": 5736,
      "cautious": 5737,
      "Linda": 5738,
      "guys": 5739,
      "observed": 5740,
      "ker": 5741,
      "pastries": 5742,
      "Oops": 5743,
      "doctors": 5744,
      "exactly": 5745,
      "Milo": 5746,
      "becoming": 5747,
      "rule": 5748,
      "policeman": 5749,
      "rockets": 5750,
      "Rover": 5751,
      "insist": 5752,
      "Whistle": 5753,
      "mies": 5754,
      "fairies": 5755,
      "Vroom": 5756,
      "blooming": 5757,
      "tractor": 5758,
      "farther": 5759,
      "teamwork": 5760,
      "included": 5761,
      "remembering": 5762,
      "curly": 5763,
      "Gina": 5764,
      "zie": 5765,
      "Jenna": 5766,
      "fascinated": 5767,
      "Only": 5768,
      "slam": 5769,
      "wobbled": 5770,
      "truly": 5771,
      "helpers": 5772,
      "Rain": 5773,
      "sights": 5774,
      "firm": 5775,
      "paddle": 5776,
      "Sha": 5777,
      "onge": 5778,
      "prayer": 5779,
      "caused": 5780,
      "recording": 5781,
      "Jacob": 5782,
      "loading": 5783,
      "Ske": 5784,
      "cost": 5785,
      "Skelly": 5786,
      "Jon": 5787,
      "thro": 5788,
      "starfish": 5789,
      "traded": 5790,
      "pointy": 5791,
      "supplies": 5792,
      "sponge": 5793,
      "inviting": 5794,
      "usually": 5795,
      "throat": 5796,
      "adding": 5797,
      "situation": 5798,
      "everyday": 5799,
      "neighbourhood": 5800,
      "dots": 5801,
      "steady": 5802,
      "prett": 5803,
      "ornaments": 5804,
      "bows": 5805,
      "minerals": 5806,
      "valued": 5807,
      "shaped": 5808,
      "bare": 5809,
      "reluctantly": 5810,
      "ledge": 5811,
      "seas": 5812,
      "stays": 5813,
      "tables": 5814,
      "prettier": 5815,
      "Dee": 5816,
      "desert": 5817,
      "snowmen": 5818,
      "Betsy": 5819,
      "Dara": 5820,
      "thorn": 5821,
      "anger": 5822,
      "Whee": 5823,
      "Lion": 5824,
      "faraway": 5825,
      "solut": 5826,
      "swooped": 5827,
      "strum": 5828,
      "forks": 5829,
      "Ash": 5830,
      "badge": 5831,
      "colored": 5832,
      "winked": 5833,
      "sneezing": 5834,
      "Twink": 5835,
      "insects": 5836,
      "Suzie": 5837,
      "pans": 5838,
      "confident": 5839,
      "sobbed": 5840,
      "growling": 5841,
      "noses": 5842,
      "itchy": 5843,
      "scarves": 5844,
      "yourselves": 5845,
      "homework": 5846,
      "superheroes": 5847,
      "Dodo": 5848,
      "ido": 5849,
      "smarter": 5850,
      "windy": 5851,
      "Ziggy": 5852,
      "librarian": 5853,
      "ora": 5854,
      "gems": 5855,
      "Mart": 5856,
      "Paws": 5857,
      "lett": 5858,
      "underneath": 5859,
      "jackets": 5860,
      "Bang": 5861,
      "kicks": 5862,
      "knowledge": 5863,
      "Wink": 5864,
      "Snap": 5865,
      "Skip": 5866,
      "untie": 5867,
      "Yeah": 5868,
      "Gu": 5869,
      "cot": 5870,
      "princesses": 5871,
      "master": 5872,
      "...\"": 5873,
      "vin": 5874,
      "Fido": 5875,
      "rusty": 5876,
      "reads": 5877,
      "squares": 5878,
      "giggling": 5879,
      "warnings": 5880,
      "ropes": 5881,
      "zzed": 5882,
      "younger": 5883,
      "swallow": 5884,
      "clowns": 5885,
      "Nana": 5886,
      "deal": 5887,
      "biting": 5888,
      "Sadly": 5889,
      "aut": 5890,
      "orted": 5891,
      "Fe": 5892,
      "nine": 5893,
      "Yesterday": 5894,
      "Twinkle": 5895,
      "Ew": 5896,
      "Pu": 5897,
      "pite": 5898,
      "seag": 5899,
      "iv": 5900,
      "seagull": 5901,
      "delivered": 5902,
      "paddled": 5903,
      "wears": 5904,
      "onions": 5905,
      "buzzed": 5906,
      "complained": 5907,
      "Cara": 5908,
      "bumpy": 5909,
      "rance": 5910,
      "Buggy": 5911,
      "piggy": 5912,
      "Jessica": 5913,
      "Cathy": 5914,
      "Jones": 5915,
      "Shh": 5916,
      "dived": 5917,
      "direction": 5918,
      "surface": 5919,
      "tangled": 5920,
      "startled": 5921,
      "froze": 5922,
      "vowed": 5923,
      "squeal": 5924,
      "napkins": 5925,
      "covers": 5926,
      "tickled": 5927,
      "Cindy": 5928,
      "ripe": 5929,
      "satisfied": 5930,
      "Near": 5931,
      "Ba": 5932,
      "itches": 5933,
      "yells": 5934,
      "cous": 5935,
      "swims": 5936,
      "freshed": 5937,
      "wow": 5938,
      "knocks": 5939,
      "refreshed": 5940,
      "signed": 5941,
      "Kayla": 5942,
      "Mine": 5943,
      "fits": 5944,
      "arrows": 5945,
      "marked": 5946,
      "guessing": 5947,
      "wipes": 5948,
      "speaking": 5949,
      "Tara": 5950,
      "ented": 5951,
      "lettuce": 5952,
      "seeker": 5953,
      "choices": 5954,
      "hides": 5955,
      "slower": 5956,
      "Julia": 5957,
      "introduced": 5958,
      "fab": 5959,
      "Oliver": 5960,
      "praying": 5961,
      "creating": 5962,
      "singer": 5963,
      "Mat": 5964,
      "Nice": 5965,
      "Fu": 5966,
      "behaving": 5967,
      "uggles": 5968,
      "ref": 5969,
      "joked": 5970,
      "toaster": 5971,
      "explorers": 5972,
      "rainy": 5973,
      "written": 5974,
      "Excuse": 5975,
      "bars": 5976,
      "discovering": 5977,
      "Rolly": 5978,
      "provided": 5979,
      "Grumpy": 5980,
      "mushrooms": 5981,
      "paying": 5982,
      "Mic": 5983,
      "knees": 5984,
      "hider": 5985,
      "ences": 5986,
      "wandering": 5987,
      "images": 5988,
      "stung": 5989,
      "Mikey": 5990,
      "ese": 5991,
      "magnets": 5992,
      "barely": 5993,
      "Matt": 5994,
      "Snuggles": 5995,
      "sequ": 5996,
      "Copper": 5997,
      "?\",": 5998,
      "leading": 5999,
      "restored": 6000,
      "chuck": 6001,
      "Laser": 6002,
      "ranger": 6003,
      "gears": 6004,
      "bravery": 6005,
      "competition": 6006,
      "wishing": 6007,
      "properly": 6008,
      "ventured": 6009,
      "dances": 6010,
      "salty": 6011,
      "however": 6012,
      "deserve": 6013,
      "matters": 6014,
      "darkness": 6015,
      "blocking": 6016,
      "cobwebs": 6017,
      "stem": 6018,
      "ruining": 6019,
      "chefs": 6020,
      "consequ": 6021,
      "vines": 6022,
      "scur": 6023,
      "hum": 6024,
      "lower": 6025,
      "fabric": 6026,
      "entire": 6027,
      "basement": 6028,
      "least": 6029,
      "performed": 6030,
      "Bark": 6031,
      "amb": 6032,
      "Jay": 6033,
      "bbie": 6034,
      "mints": 6035,
      "scratches": 6036,
      "heavier": 6037,
      "Pup": 6038,
      "losing": 6039,
      "avocados": 6040,
      "twirling": 6041,
      "Without": 6042,
      "suits": 6043,
      "haust": 6044,
      "sunflowers": 6045,
      "flake": 6046,
      "scurried": 6047,
      "rever": 6048,
      "wraps": 6049,
      "reflect": 6050,
      "swords": 6051,
      "silent": 6052,
      "solution": 6053,
      "jobs": 6054,
      "burst": 6055,
      "flames": 6056,
      "necklaces": 6057,
      "Bloom": 6058,
      "si": 6059,
      "rotting": 6060,
      "relief": 6061,
      "sewed": 6062,
      "snat": 6063,
      "Larry": 6064,
      "tricky": 6065,
      "lighter": 6066,
      "Sophia": 6067,
      "stain": 6068,
      "exhaust": 6069,
      "races": 6070,
      "consequences": 6071,
      "unpacked": 6072,
      "Doctor": 6073,
      "bumps": 6074,
      "pins": 6075,
      "partic": 6076,
      "tires": 6077,
      "thud": 6078,
      "accomplish": 6079,
      "Fro": 6080,
      "purr": 6081,
      "decorating": 6082,
      "backed": 6083,
      "isies": 6084,
      "rious": 6085,
      "Peanut": 6086,
      "lifting": 6087,
      "crackers": 6088,
      "Lizz": 6089,
      "ene": 6090,
      "noy": 6091,
      "Up": 6092,
      "dentist": 6093,
      "needles": 6094,
      "cautiously": 6095,
      "ties": 6096,
      "click": 6097,
      "annoy": 6098,
      "daisies": 6099,
      "triangles": 6100,
      "hesitated": 6101,
      "Lizzie": 6102,
      "iar": 6103,
      "growls": 6104,
      "grabbing": 6105,
      "ouch": 6106,
      "stomped": 6107,
      "Woo": 6108,
      "figured": 6109,
      "bodies": 6110,
      "mater": 6111,
      "buying": 6112,
      "rains": 6113,
      "familiar": 6114,
      "swans": 6115,
      "material": 6116,
      "grows": 6117,
      "sweets": 6118,
      "June": 6119,
      "Ant": 6120,
      "cheeks": 6121,
      "bly": 6122,
      "Sim": 6123,
      "interested": 6124,
      "suffering": 6125,
      "groups": 6126,
      "lungs": 6127,
      "owners": 6128,
      "bakery": 6129,
      "freed": 6130,
      "Ele": 6131,
      "ded": 6132,
      "chuckled": 6133,
      "repa": 6134,
      "swept": 6135,
      "source": 6136,
      "ters": 6137,
      "tapped": 6138,
      "?'": 6139,
      "exhausted": 6140,
      "yan": 6141,
      "twinkling": 6142,
      "nectar": 6143,
      "Frosty": 6144,
      "feast": 6145,
      "darling": 6146,
      "indro": 6147,
      "reason": 6148,
      "fuzzy": 6149,
      "worries": 6150,
      "repaired": 6151,
      "kings": 6152,
      "tunnels": 6153,
      "Very": 6154,
      "activities": 6155,
      "meals": 6156,
      "plent": 6157,
      "dip": 6158,
      "pecked": 6159,
      "Pam": 6160,
      "rist": 6161,
      "entrance": 6162,
      "raindro": 6163,
      "mailed": 6164,
      "completely": 6165,
      "particular": 6166,
      "changing": 6167,
      "Que": 6168,
      "nests": 6169,
      "waiter": 6170,
      "stool": 6171,
      "cuddly": 6172,
      "sense": 6173,
      "Birthday": 6174,
      "Moon": 6175,
      "peeking": 6176,
      "ks": 6177,
      "plenty": 6178,
      "forehead": 6179,
      "slammed": 6180,
      "players": 6181,
      "printing": 6182,
      "Bigg": 6183,
      "Rollie": 6184,
      "budge": 6185,
      "month": 6186,
      "Chris": 6187,
      "gle": 6188,
      "Nick": 6189,
      "Stell": 6190,
      "forgets": 6191,
      "rum": 6192,
      "scra": 6193,
      "Mel": 6194,
      "handful": 6195,
      "Stella": 6196,
      "genie": 6197,
      "Cu": 6198,
      "Other": 6199,
      "lon": 6200,
      "talks": 6201,
      "feeding": 6202,
      "passports": 6203,
      "films": 6204,
      "impossible": 6205,
      "baths": 6206,
      "wobble": 6207,
      "determination": 6208,
      "Christ": 6209,
      "designed": 6210,
      "Queen": 6211,
      "buses": 6212,
      "opp": 6213,
      "counts": 6214,
      "stolen": 6215,
      "Magic": 6216,
      "Sleep": 6217,
      "spikes": 6218,
      "fires": 6219,
      "spreading": 6220,
      "wiping": 6221,
      "steer": 6222,
      "lamb": 6223,
      "hops": 6224,
      "Hurry": 6225,
      "ranny": 6226,
      "blings": 6227,
      "honked": 6228,
      "squish": 6229,
      "chop": 6230,
      "Missy": 6231,
      "irl": 6232,
      "ply": 6233,
      "separated": 6234,
      "Abbie": 6235,
      "siblings": 6236,
      "Biggie": 6237,
      "thest": 6238,
      "fever": 6239,
      "Robbie": 6240,
      "sewing": 6241,
      "twinkle": 6242,
      "behavi": 6243,
      "iss": 6244,
      "Maya": 6245,
      "toed": 6246,
      "pose": 6247,
      "camping": 6248,
      "bi": 6249,
      "Eleph": 6250,
      "Lau": 6251,
      "immer": 6252,
      "liqu": 6253,
      "celebration": 6254,
      "serving": 6255,
      "squealed": 6256,
      "Rock": 6257,
      "Robo": 6258,
      "Robert": 6259,
      "Stre": 6260,
      "backward": 6261,
      "Lia": 6262,
      "snatched": 6263,
      "cash": 6264,
      "hog": 6265,
      "twice": 6266,
      "sway": 6267,
      "creams": 6268,
      "dollhouse": 6269,
      "shrinking": 6270,
      "celebrating": 6271,
      "Izzy": 6272,
      "moo": 6273,
      "shops": 6274,
      "Honey": 6275,
      "kittens": 6276,
      "plain": 6277,
      "hus": 6278,
      "mate": 6279,
      "spat": 6280,
      "touches": 6281,
      "pancakes": 6282,
      "Stretch": 6283,
      "avoid": 6284,
      "ingo": 6285,
      "Fuzzy": 6286,
      "Toot": 6287,
      "wrapping": 6288,
      "ul": 6289,
      "twisting": 6290,
      "peck": 6291,
      "rotten": 6292,
      "paths": 6293,
      "tram": 6294,
      "dropping": 6295,
      "seaweed": 6296,
      "calmed": 6297,
      "stroked": 6298,
      "cers": 6299,
      "Laura": 6300,
      "untied": 6301,
      "iles": 6302,
      "playhouse": 6303,
      "Which": 6304,
      "haw": 6305,
      "screws": 6306,
      "students": 6307,
      "puppies": 6308,
      "Farm": 6309,
      "astron": 6310,
      "somebody": 6311,
      "igning": 6312,
      "liquid": 6313,
      "loops": 6314,
      "bras": 6315,
      "shoo": 6316,
      "wakes": 6317,
      "thrown": 6318,
      "bracelets": 6319,
      "astronaut": 6320,
      "itched": 6321,
      "Christmas": 6322,
      "skunk": 6323,
      "planning": 6324,
      "aimed": 6325,
      "Rudy": 6326,
      "Sparky": 6327,
      "pennies": 6328,
      "ends": 6329,
      "lifts": 6330,
      "belts": 6331,
      "beginning": 6332,
      "cent": 6333,
      "chie": 6334,
      "dancers": 6335,
      "sparks": 6336,
      "firefly": 6337,
      "Elephant": 6338,
      "poster": 6339,
      "rewarded": 6340,
      "sale": 6341,
      "Isn": 6342,
      "endy": 6343,
      "lia": 6344,
      "tempt": 6345,
      "objects": 6346,
      "trampol": 6347,
      "Karen": 6348,
      "directions": 6349,
      "husband": 6350,
      "Ryan": 6351,
      "reflection": 6352,
      "clues": 6353,
      "rising": 6354,
      "leads": 6355,
      "increased": 6356,
      "blocked": 6357,
      "scor": 6358,
      "cousin": 6359,
      "forgetting": 6360,
      "gar": 6361,
      "trigued": 6362,
      "Open": 6363,
      "bits": 6364,
      "ading": 6365,
      "trampoline": 6366,
      "pouted": 6367,
      "storekeeper": 6368,
      "zebras": 6369,
      "Martha": 6370,
      "hedgehog": 6371,
      "--": 6372,
      "lings": 6373,
      "borrowed": 6374,
      "snowflake": 6375,
      "angle": 6376,
      "countryside": 6377,
      "dama": 6378,
      "mesmer": 6379,
      "damage": 6380,
      "vehicles": 6381,
      "instrum": 6382,
      "Emmy": 6383,
      "frowning": 6384,
      "Along": 6385,
      "itor": 6386,
      "presses": 6387,
      "ivity": 6388,
      "marker": 6389,
      "Mabel": 6390,
      "beyond": 6391,
      "ammy": 6392,
      "maker": 6393,
      "ount": 6394,
      "cert": 6395,
      "whispers": 6396,
      "slips": 6397,
      "forts": 6398,
      "Does": 6399,
      "warmer": 6400,
      "flapping": 6401,
      "tiptoed": 6402,
      "Farmer": 6403,
      "Granny": 6404,
      "regretted": 6405,
      "everybody": 6406,
      "glued": 6407,
      "yelp": 6408,
      "creations": 6409,
      "hearing": 6410,
      "colder": 6411,
      "Snowman": 6412,
      "smelling": 6413,
      "airy": 6414,
      "Beaky": 6415,
      "bells": 6416,
      "Ne": 6417,
      "tying": 6418,
      "Show": 6419,
      "streets": 6420,
      "Ron": 6421,
      "earn": 6422,
      "fins": 6423,
      "cushions": 6424,
      "Univer": 6425,
      "Tia": 6426,
      "farthest": 6427,
      "creativity": 6428,
      "Ribb": 6429,
      "os": 6430,
      "ortun": 6431,
      "Make": 6432,
      "strongest": 6433,
      "Crab": 6434,
      "Too": 6435,
      "talent": 6436,
      "spins": 6437,
      "dollars": 6438,
      "Ribbit": 6439,
      "Ana": 6440,
      "iam": 6441,
      "lending": 6442,
      "Never": 6443,
      "cashier": 6444,
      "including": 6445,
      "sank": 6446,
      "stopping": 6447,
      "puff": 6448,
      "raincoat": 6449,
      "sniffs": 6450,
      "Spir": 6451,
      "trembled": 6452,
      "health": 6453,
      "Win": 6454,
      "pon": 6455,
      "iti": 6456,
      "Simon": 6457,
      "indeed": 6458,
      "wobbly": 6459,
      "Spirit": 6460,
      "hael": 6461,
      "guests": 6462,
      "single": 6463,
      "recommended": 6464,
      "Say": 6465,
      "spells": 6466,
      "bbled": 6467,
      "surprising": 6468,
      "accomplishment": 6469,
      "Afterwards": 6470,
      "hopeful": 6471,
      "Barky": 6472,
      "tweet": 6473,
      "pered": 6474,
      "seasons": 6475,
      "plans": 6476,
      "drivers": 6477,
      "supported": 6478,
      "suitcase": 6479,
      "mance": 6480,
      "stands": 6481,
      "artist": 6482,
      "suffered": 6483,
      "performance": 6484,
      "gross": 6485,
      "slowed": 6486,
      "vanilla": 6487,
      "flavors": 6488,
      "Michael": 6489,
      "Kit": 6490,
      "Bones": 6491,
      "delivery": 6492,
      "forgiving": 6493,
      "labels": 6494,
      "raindrops": 6495,
      "fle": 6496,
      "racco": 6497,
      "ware": 6498,
      "coloured": 6499,
      "pours": 6500,
      "Holly": 6501,
      "Nobody": 6502,
      "ility": 6503,
      "turtles": 6504,
      "willing": 6505,
      "Mad": 6506,
      "guy": 6507,
      "drawn": 6508,
      "Guess": 6509,
      "Titi": 6510,
      "recipe": 6511,
      "pops": 6512,
      "geese": 6513,
      "Janie": 6514,
      "Patch": 6515,
      "wept": 6516,
      "hadow": 6517,
      "charac": 6518,
      "corners": 6519,
      "sailboat": 6520,
      "surfboard": 6521,
      "queens": 6522,
      "squeak": 6523,
      "Hor": 6524,
      "itude": 6525,
      "Turt": 6526,
      "nif": 6527,
      "imagining": 6528,
      "hallway": 6529,
      "seconds": 6530,
      "watering": 6531,
      "raging": 6532,
      "grip": 6533,
      "preparing": 6534,
      "Zee": 6535,
      "widened": 6536,
      "robber": 6537,
      "outfit": 6538,
      "grocer": 6539,
      "Share": 6540,
      "Mother": 6541,
      "talented": 6542,
      "minded": 6543,
      "sailors": 6544,
      "aside": 6545,
      "softer": 6546,
      "tipped": 6547,
      "sending": 6548,
      "knots": 6549,
      "Cow": 6550,
      "inst": 6551,
      "unsure": 6552,
      "zipping": 6553,
      "horiz": 6554,
      "treehouse": 6555,
      "Find": 6556,
      "echo": 6557,
      "notes": 6558,
      "Baa": 6559,
      "Momma": 6560,
      "achieved": 6561,
      "Poor": 6562,
      "horizon": 6563,
      "pleasure": 6564,
      "delivering": 6565,
      "blinking": 6566,
      "hotter": 6567,
      "pupils": 6568,
      "angels": 6569,
      "burrow": 6570,
      "curiously": 6571,
      "lle": 6572,
      "ives": 6573,
      "prove": 6574,
      "Fight": 6575,
      "Since": 6576,
      "rumble": 6577,
      "symbols": 6578,
      "pigeons": 6579,
      "figures": 6580,
      "tummies": 6581,
      "acle": 6582,
      "bandages": 6583,
      "Ral": 6584,
      "visitor": 6585,
      "Ar": 6586,
      "robots": 6587,
      "Zoey": 6588,
      "hour": 6589,
      "backwards": 6590,
      "tossed": 6591,
      "raccoon": 6592,
      "roars": 6593,
      "Ralph": 6594,
      "merma": 6595,
      "rather": 6596,
      "Toys": 6597,
      "atur": 6598,
      "Se": 6599,
      "Wise": 6600,
      "groceries": 6601,
      "Excited": 6602,
      "blown": 6603,
      "Wake": 6604,
      "date": 6605,
      "iding": 6606,
      "among": 6607,
      "Abi": 6608,
      "nu": 6609,
      "afterwards": 6610,
      "Jackie": 6611,
      "!”.": 6612,
      "Wendy": 6613,
      "Wor": 6614,
      "sped": 6615,
      "ments": 6616,
      "glee": 6617,
      "overcome": 6618,
      "Rich": 6619,
      "Any": 6620,
      "shovels": 6621,
      "slices": 6622,
      "merry": 6623,
      "Fighting": 6624,
      "Lenny": 6625,
      "issue": 6626,
      "heading": 6627,
      "Marie": 6628,
      "disturbing": 6629,
      "firefighters": 6630,
      "reversed": 6631,
      "Des": 6632,
      "swallowed": 6633,
      "Willy": 6634,
      "flipped": 6635,
      "scored": 6636,
      "squeezing": 6637,
      "Bro": 6638,
      "Roo": 6639,
      "Am": 6640,
      "waking": 6641,
      "intrigued": 6642,
      "couraging": 6643,
      "Davey": 6644,
      "Ame": 6645,
      "center": 6646,
      "ades": 6647,
      "Tweetie": 6648,
      "hawk": 6649,
      "Yog": 6650,
      "item": 6651,
      "Ra": 6652,
      "dged": 6653,
      "encouraging": 6654,
      "Playing": 6655,
      "chosen": 6656,
      "Turtle": 6657,
      "University": 6658,
      "couple": 6659,
      "screwdriver": 6660,
      "designs": 6661,
      "rivers": 6662,
      "slipping": 6663,
      "Mix": 6664,
      "secure": 6665,
      "squishy": 6666,
      "gardener": 6667,
      "Puppy": 6668,
      "markers": 6669,
      "respond": 6670,
      "tigers": 6671,
      "jars": 6672,
      "frowns": 6673,
      "iley": 6674,
      "fluttered": 6675,
      "firefighter": 6676,
      "Jacky": 6677,
      "Shr": 6678,
      "sprinkled": 6679,
      "assur": 6680,
      "creamy": 6681,
      "sharks": 6682,
      "ignoring": 6683,
      "lent": 6684,
      "giggles": 6685,
      "lling": 6686,
      "tissue": 6687,
      "tighter": 6688,
      "firmly": 6689,
      "Judy": 6690,
      "ais": 6691,
      "shown": 6692,
      "crew": 6693,
      "ships": 6694,
      "thorns": 6695,
      "amed": 6696,
      "audi": 6697,
      "Chewy": 6698,
      "Kip": 6699,
      "Boys": 6700,
      "drawers": 6701,
      "til": 6702,
      "lies": 6703,
      "crossing": 6704,
      "daring": 6705,
      "performing": 6706,
      "audience": 6707,
      "Ali": 6708,
      "Todd": 6709,
      "cloudy": 6710,
      "pedaled": 6711,
      "ilder": 6712,
      "stroke": 6713,
      "mixture": 6714,
      "addie": 6715,
      "gracefully": 6716,
      "yielded": 6717,
      "haircuts": 6718,
      "ev": 6719,
      "respected": 6720,
      "ponies": 6721,
      "Maddie": 6722,
      "sim": 6723,
      "crowns": 6724,
      "todd": 6725,
      "ias": 6726,
      "hangers": 6727,
      "nervously": 6728,
      "express": 6729,
      "Yet": 6730,
      "pays": 6731,
      "Bally": 6732,
      "Dear": 6733,
      "wrink": 6734,
      "sports": 6735,
      "ory": 6736,
      "avy": 6737,
      "ddie": 6738,
      "tested": 6739,
      "Mina": 6740,
      "Soft": 6741,
      "obeyed": 6742,
      "Jojo": 6743,
      "Outside": 6744,
      "melons": 6745,
      "beehive": 6746,
      "drif": 6747,
      "surfing": 6748,
      "Alright": 6749,
      "neighbours": 6750,
      "Man": 6751,
      "sever": 6752,
      "wisely": 6753,
      "shady": 6754,
      "iona": 6755,
      "magician": 6756,
      "enthusias": 6757,
      "darlings": 6758,
      "Sparkle": 6759,
      "enthusiasm": 6760,
      "stitches": 6761,
      "Sadie": 6762,
      "sails": 6763,
      "foc": 6764,
      "Although": 6765,
      "thoughts": 6766,
      "flip": 6767,
      "rays": 6768,
      "bathing": 6769,
      "reminds": 6770,
      "Fiona": 6771,
      "temper": 6772,
      "rup": 6773,
      "lever": 6774,
      "Samant": 6775,
      "spits": 6776,
      "teams": 6777,
      "surroundings": 6778,
      "fleas": 6779,
      "Samantha": 6780,
      "ongrat": 6781,
      "fills": 6782,
      "lessons": 6783,
      "eted": 6784,
      "paintbrush": 6785,
      "Ange": 6786,
      "mermaid": 6787,
      "Mixy": 6788,
      "sill": 6789,
      "cleaner": 6790,
      "explo": 6791,
      "hoops": 6792,
      "panicked": 6793,
      "amount": 6794,
      "Start": 6795,
      "ann": 6796,
      "longest": 6797,
      "scooters": 6798,
      "elf": 6799,
      "beloved": 6800,
      "immering": 6801,
      "asing": 6802,
      "Everybody": 6803,
      "10": 6804,
      "rushing": 6805,
      "lves": 6806,
      "oni": 6807,
      "forgiven": 6808,
      "oysters": 6809,
      "tock": 6810,
      "fus": 6811,
      "solving": 6812,
      "certain": 6813,
      "magazines": 6814,
      "ita": 6815,
      "tasting": 6816,
      "Mint": 6817,
      "Herb": 6818,
      "repeating": 6819,
      "discussed": 6820,
      "nightmares": 6821,
      "sweetest": 6822,
      "wadd": 6823,
      "Yoga": 6824,
      "Eddie": 6825,
      "kill": 6826,
      "tubes": 6827,
      "nood": 6828,
      "understands": 6829,
      "spoonful": 6830,
      "sheets": 6831,
      "pad": 6832,
      "licking": 6833,
      "sweep": 6834,
      "Amelia": 6835,
      "manners": 6836,
      "sprang": 6837,
      "nur": 6838,
      "bully": 6839,
      "guide": 6840,
      "Choo": 6841,
      "Back": 6842,
      "compe": 6843,
      "onna": 6844,
      "tered": 6845,
      "breathed": 6846,
      "ilda": 6847,
      "bulbs": 6848,
      "wiggly": 6849,
      "Pop": 6850,
      "Fairy": 6851,
      "testing": 6852,
      "neare": 6853,
      "grassy": 6854,
      "spies": 6855,
      "Chess": 6856,
      "deed": 6857,
      "Unt": 6858,
      "footsteps": 6859,
      "weekend": 6860,
      "speeding": 6861,
      "More": 6862,
      "Micro": 6863,
      "Until": 6864,
      "Bess": 6865,
      "perate": 6866,
      "focused": 6867,
      "ounced": 6868,
      "?!\"": 6869,
      "imb": 6870,
      "camel": 6871,
      "braver": 6872,
      "mesmerized": 6873,
      "lan": 6874,
      "worn": 6875,
      "hesitant": 6876,
      "Smo": 6877,
      "joining": 6878,
      "Raz": 6879,
      "greeted": 6880,
      "polar": 6881,
      "changes": 6882,
      "Meg": 6883,
      "cutter": 6884,
      "Deal": 6885,
      "Despite": 6886,
      "evil": 6887,
      "materials": 6888,
      "Ruff": 6889,
      "dred": 6890,
      "Gary": 6891,
      "Mean": 6892,
      "bicycles": 6893,
      "Goodnight": 6894,
      "awn": 6895,
      "ongratul": 6896,
      "peacefully": 6897,
      "spice": 6898,
      "Judge": 6899,
      "Sof": 6900,
      "gonna": 6901,
      "cept": 6902,
      "terrified": 6903,
      "nuzz": 6904,
      "Ruth": 6905,
      "knives": 6906,
      "politely": 6907,
      "scarecrow": 6908,
      "spills": 6909,
      "ashed": 6910,
      "burying": 6911,
      "ppies": 6912,
      "asers": 6913,
      "healing": 6914,
      "scattering": 6915,
      "aeroplanes": 6916,
      "seals": 6917,
      "miles": 6918,
      "Razor": 6919,
      "amboo": 6920,
      "Shadow": 6921,
      "blast": 6922,
      "worrying": 6923,
      "Spin": 6924,
      "Navy": 6925,
      "gazing": 6926,
      "stacked": 6927,
      "ows": 6928,
      "sation": 6929,
      "puzzled": 6930,
      "Eat": 6931,
      "Ice": 6932,
      "loses": 6933,
      "Hug": 6934,
      "Mindy": 6935,
      "tar": 6936,
      "baskets": 6937,
      "travelled": 6938,
      "dump": 6939,
      "Arr": 6940,
      "antic": 6941,
      "donkey": 6942,
      "locks": 6943,
      "temperature": 6944,
      "formed": 6945,
      "soaking": 6946,
      "ipes": 6947,
      "dripping": 6948,
      "believing": 6949,
      "pinching": 6950,
      "reassur": 6951,
      "clue": 6952,
      "rats": 6953,
      "force": 6954,
      "Another": 6955,
      "sandy": 6956,
      "sisted": 6957,
      "Should": 6958,
      "covering": 6959,
      "oosh": 6960,
      "Meanwhile": 6961,
      "punishment": 6962,
      "crashing": 6963,
      "banged": 6964,
      "Stan": 6965,
      "humans": 6966,
      "Eliz": 6967,
      "hundred": 6968,
      "Climb": 6969,
      "Eliza": 6970,
      "Dina": 6971,
      "orrow": 6972,
      "swimmer": 6973,
      "recor": 6974,
      "relaxing": 6975,
      "snowflakes": 6976,
      "Maddy": 6977,
      "Use": 6978,
      "dressing": 6979,
      "Still": 6980,
      "resisted": 6981,
      "quarreled": 6982,
      "beeped": 6983,
      "een": 6984,
      "arran": 6985,
      "bage": 6986,
      "joins": 6987,
      "delayed": 6988,
      "backpacks": 6989,
      "ramp": 6990,
      "Prince": 6991,
      "Maisy": 6992,
      "toddler": 6993,
      "hil": 6994,
      "ipper": 6995,
      "correct": 6996,
      "Ria": 6997,
      "encouragement": 6998,
      "Sofia": 6999,
      "toward": 7000,
      "rows": 7001,
      "benches": 7002,
      "Shelly": 7003,
      "Blinky": 7004,
      "scraped": 7005,
      "purpose": 7006,
      "py": 7007,
      "'.\"": 7008,
      "Loop": 7009,
      "permitted": 7010,
      "Jonny": 7011,
      "bamboo": 7012,
      "potion": 7013,
      "twinkled": 7014,
      "Tig": 7015,
      "cheers": 7016,
      "freedom": 7017,
      "months": 7018,
      "abby": 7019,
      "languages": 7020,
      "Eva": 7021,
      "poppies": 7022,
      "orders": 7023,
      "risks": 7024,
      "noodles": 7025,
      "faded": 7026,
      "shmall": 7027,
      "wounds": 7028,
      "rier": 7029,
      "Bri": 7030,
      "burnt": 7031,
      "Flick": 7032,
      "Pick": 7033,
      "pea": 7034,
      "sniffing": 7035,
      "cells": 7036,
      "adults": 7037,
      "annoyed": 7038,
      "pand": 7039,
      "Ring": 7040,
      "cca": 7041,
      "handsome": 7042,
      "floats": 7043,
      "opinions": 7044,
      "Tomorrow": 7045,
      "ientist": 7046,
      "Bon": 7047,
      "flown": 7048,
      "nodding": 7049,
      "Gerry": 7050,
      "sou": 7051,
      "sneezes": 7052,
      "damaged": 7053,
      "La": 7054,
      "Tri": 7055,
      "ease": 7056,
      "blu": 7057,
      "lipstick": 7058,
      "drifted": 7059,
      "hiss": 7060,
      "within": 7061,
      "tearing": 7062,
      "height": 7063,
      "bothering": 7064,
      "Ricky": 7065,
      "pleaded": 7066,
      "treated": 7067,
      "slither": 7068,
      "instruments": 7069,
      "Close": 7070,
      "Zippy": 7071,
      "seller": 7072,
      "Cari": 7073,
      "scientist": 7074,
      "pound": 7075,
      "ition": 7076,
      "birdhouse": 7077,
      "handing": 7078,
      "Megan": 7079,
      "Dani": 7080,
      "files": 7081,
      "Frankie": 7082,
      "wasting": 7083,
      "Fly": 7084,
      "dreamt": 7085,
      "results": 7086,
      "Play": 7087,
      "oops": 7088,
      "brushing": 7089,
      "destroying": 7090,
      "flight": 7091,
      "explains": 7092,
      "ousy": 7093,
      "characters": 7094,
      "Pret": 7095,
      "sweaty": 7096,
      "behavior": 7097,
      "Muff": 7098,
      "Mousy": 7099,
      "Sc": 7100,
      "Whoever": 7101,
      "Nut": 7102,
      "onward": 7103,
      "talents": 7104,
      "Fishy": 7105,
      "Tw": 7106,
      "Tre": 7107,
      "swirl": 7108,
      "bravest": 7109,
      "Boom": 7110,
      "engines": 7111,
      "mosquitoes": 7112,
      "sternly": 7113,
      "puck": 7114,
      "builder": 7115,
      "postman": 7116,
      "mischie": 7117,
      "tuck": 7118,
      "minds": 7119,
      "scares": 7120,
      "manag": 7121,
      "apologised": 7122,
      "Shrink": 7123,
      "Ca": 7124,
      "bitten": 7125,
      "quie": 7126,
      "snuck": 7127,
      "grandparents": 7128,
      "Nurse": 7129,
      "switched": 7130,
      "reminding": 7131,
      "decisions": 7132,
      "tilted": 7133,
      "singers": 7134,
      "breathing": 7135,
      "peeled": 7136,
      "Katy": 7137,
      "squeaked": 7138,
      "scam": 7139,
      "displayed": 7140,
      "purrs": 7141,
      "shines": 7142,
      "Patty": 7143,
      "Curious": 7144,
      "smashed": 7145,
      "rustling": 7146,
      "shor": 7147,
      "neatly": 7148,
      "gap": 7149,
      "planting": 7150,
      "marshmall": 7151,
      "cracks": 7152,
      "business": 7153,
      "bellies": 7154,
      "yelped": 7155,
      "Louise": 7156,
      "failed": 7157,
      "coloring": 7158,
      "Nancy": 7159,
      "charge": 7160,
      "Min": 7161,
      "focus": 7162,
      "via": 7163,
      "nasty": 7164,
      "zooms": 7165,
      "Speed": 7166,
      "Rita": 7167,
      "Sweet": 7168,
      "combed": 7169,
      "despite": 7170,
      "squaw": 7171,
      "pandas": 7172,
      "spapers": 7173,
      "edges": 7174,
      "spy": 7175,
      "Muffin": 7176,
      "plug": 7177,
      "wider": 7178,
      "robbers": 7179,
      "curl": 7180,
      "tage": 7181,
      "doorway": 7182,
      "sweaters": 7183,
      "echoed": 7184,
      "Jax": 7185,
      "nib": 7186,
      "action": 7187,
      "conne": 7188,
      "Kelly": 7189,
      "cafe": 7190,
      "Bubba": 7191,
      "Er": 7192,
      "taped": 7193,
      "flaps": 7194,
      "Tell": 7195,
      "connected": 7196,
      "backs": 7197,
      "scolds": 7198,
      "magnif": 7199,
      "tops": 7200,
      "crawls": 7201,
      "bably": 7202,
      "gobbled": 7203,
      "rior": 7204,
      "warrior": 7205,
      "stetho": 7206,
      "newspapers": 7207,
      "gras": 7208,
      "probably": 7209,
      "shinier": 7210,
      "Wooly": 7211,
      "cond": 7212,
      "Butter": 7213,
      "several": 7214,
      "Con": 7215,
      "encounter": 7216,
      "goo": 7217,
      "plucked": 7218,
      "assm": 7219,
      "quieter": 7220,
      "gesture": 7221,
      "Phil": 7222,
      "Taking": 7223,
      "plot": 7224,
      "aint": 7225,
      "swap": 7226,
      "student": 7227,
      "Kevin": 7228,
      "cares": 7229,
      "waterfall": 7230,
      "gues": 7231,
      "swimsuit": 7232,
      "rescuing": 7233,
      "cottage": 7234,
      "snaps": 7235,
      "grandson": 7236,
      "Elle": 7237,
      "Ty": 7238,
      "simply": 7239,
      "whistles": 7240,
      "Sl": 7241,
      "doorbell": 7242,
      "astronauts": 7243,
      "shorter": 7244,
      "ssss": 7245,
      "accidents": 7246,
      "unpacking": 7247,
      "swo": 7248,
      "mood": 7249,
      "bothered": 7250,
      "ibi": 7251,
      "swollen": 7252,
      "Right": 7253,
      "belle": 7254,
      "phones": 7255,
      "lor": 7256,
      "stethoscope": 7257,
      "Sal": 7258,
      "causing": 7259,
      "trusting": 7260,
      "Sa": 7261,
      "stalk": 7262,
      "leapt": 7263,
      "dresser": 7264,
      "pills": 7265,
      "Elsa": 7266,
      "runner": 7267,
      "throughout": 7268,
      "flips": 7269,
      "Sir": 7270,
      "elbow": 7271,
      "joyful": 7272,
      "prayers": 7273,
      "goats": 7274,
      "beaver": 7275,
      "Arrr": 7276,
      "munch": 7277,
      "Sis": 7278,
      "Flop": 7279,
      "dears": 7280,
      "Ot": 7281,
      "waddled": 7282,
      "lowered": 7283,
      "Startled": 7284,
      "stepping": 7285,
      "rowed": 7286,
      "teachers": 7287,
      "Grow": 7288,
      "Ly": 7289,
      "cowboy": 7290,
      "Daniel": 7291,
      "Bumpy": 7292,
      "Bibi": 7293,
      "inches": 7294,
      "envelopes": 7295,
      "grandchild": 7296,
      "Biggy": 7297,
      "Vi": 7298,
      "explorer": 7299,
      "anticip": 7300,
      "Becky": 7301,
      "gasp": 7302,
      "knocking": 7303,
      "Zipper": 7304,
      "whim": 7305,
      "floors": 7306,
      "efforts": 7307,
      "ruff": 7308,
      "uniforms": 7309,
      "Vivi": 7310,
      "aware": 7311,
      "wenty": 7312,
      "footprints": 7313,
      "nearly": 7314,
      "llas": 7315,
      "except": 7316,
      "trot": 7317,
      "glitt": 7318,
      "appreciation": 7319,
      "Thunder": 7320,
      "necks": 7321,
      "checks": 7322,
      "Joan": 7323,
      "collap": 7324,
      "Seeing": 7325,
      "sets": 7326,
      "Pretty": 7327,
      "posit": 7328,
      "engers": 7329,
      "fluttering": 7330,
      "umbrellas": 7331,
      "stamped": 7332,
      "sandcastles": 7333,
      "statues": 7334,
      "Jason": 7335,
      "iscu": 7336,
      "shrank": 7337,
      "squir": 7338,
      "Care": 7339,
      "finishing": 7340,
      "prick": 7341,
      "tran": 7342,
      "adds": 7343,
      "dodged": 7344,
      "chocolates": 7345,
      "germs": 7346,
      "passengers": 7347,
      "hunters": 7348,
      "matey": 7349,
      "burns": 7350,
      "Jolly": 7351,
      "Roger": 7352,
      "aprons": 7353,
      "aisle": 7354,
      "Cro": 7355,
      "whoosh": 7356,
      "Sup": 7357,
      "Yawn": 7358,
      "plugged": 7359,
      "Mae": 7360,
      ".'\"": 7361,
      "weeds": 7362,
      "Sw": 7363,
      "novels": 7364,
      "meows": 7365,
      "address": 7366,
      "demanding": 7367,
      "sented": 7368,
      "Softy": 7369,
      "Bingo": 7370,
      "issa": 7371,
      "shall": 7372,
      "Chick": 7373,
      "scratching": 7374,
      "presented": 7375,
      "minding": 7376,
      "discussing": 7377,
      "nurses": 7378,
      "refresh": 7379,
      "Gray": 7380,
      "driveway": 7381,
      "killed": 7382,
      "Gus": 7383,
      "becomes": 7384,
      "attack": 7385,
      "laptop": 7386,
      "toolbox": 7387,
      "Truck": 7388,
      "Vicky": 7389,
      "ashes": 7390,
      "supplied": 7391,
      "lope": 7392,
      "closing": 7393,
      "bounces": 7394,
      "scampered": 7395,
      "sprays": 7396,
      "slapping": 7397,
      "Hmm": 7398,
      "cas": 7399,
      "friendships": 7400,
      "suggestion": 7401,
      "Snake": 7402,
      "ford": 7403,
      "cotton": 7404,
      "belongings": 7405,
      "twists": 7406,
      "springing": 7407,
      "invites": 7408,
      "anticipation": 7409,
      "vented": 7410,
      "snuggle": 7411,
      "forgives": 7412,
      "models": 7413,
      "Flutter": 7414,
      "humming": 7415,
      "ghosts": 7416,
      "buckled": 7417,
      "massages": 7418,
      "newfound": 7419,
      "responded": 7420,
      "Piggy": 7421,
      "stroll": 7422,
      "expecting": 7423,
      "aim": 7424,
      "cheated": 7425,
      "Jet": 7426,
      "lappy": 7427,
      "battle": 7428,
      "Dotty": 7429,
      "tricycle": 7430,
      "traveling": 7431,
      "Elsie": 7432,
      "although": 7433,
      "essa": 7434,
      "Zack": 7435,
      "grandfather": 7436,
      "Hallow": 7437,
      "haird": 7438,
      "mommies": 7439,
      "Freddie": 7440,
      "Missile": 7441,
      "Halloween": 7442,
      "carries": 7443,
      "Charlot": 7444,
      "invitations": 7445,
      "twenty": 7446,
      "Caro": 7447,
      "refreshing": 7448,
      "Lina": 7449,
      "Grand": 7450,
      "omb": 7451,
      "Wolf": 7452,
      "Tru": 7453,
      "ien": 7454,
      "final": 7455,
      "foxes": 7456,
      "Charlotte": 7457,
      "Light": 7458,
      "duckling": 7459,
      "laces": 7460,
      "Angel": 7461,
      "ats": 7462,
      "Terry": 7463,
      "marshmallows": 7464,
      "clicked": 7465,
      "convin": 7466,
      "designing": 7467,
      "Pig": 7468,
      "jets": 7469,
      "mugs": 7470,
      "Feli": 7471,
      "Twist": 7472,
      "coral": 7473,
      "picnics": 7474,
      "clip": 7475,
      "insp": 7476,
      "scoops": 7477,
      "Eric": 7478,
      "travels": 7479,
      "Quacky": 7480,
      "aliens": 7481,
      "tests": 7482,
      "William": 7483,
      "questioned": 7484,
      "Te": 7485,
      "strips": 7486,
      "oudest": 7487,
      "defe": 7488,
      "usty": 7489,
      "connect": 7490,
      "greet": 7491,
      "consid": 7492,
      "Brrr": 7493,
      "Cir": 7494,
      "Flappy": 7495,
      "fights": 7496,
      "osite": 7497,
      "opposite": 7498,
      "pant": 7499,
      "rout": 7500,
      "encountered": 7501,
      "raising": 7502,
      "cock": 7503,
      "Monkey": 7504,
      "Bun": 7505,
      "rely": 7506,
      "bless": 7507,
      "afford": 7508,
      "Tweety": 7509,
      "Amanda": 7510,
      "odd": 7511,
      "upside": 7512,
      "yawning": 7513,
      "Book": 7514,
      "defin": 7515,
      "freezing": 7516,
      "calmly": 7517,
      "flashed": 7518,
      "groan": 7519,
      "inter": 7520,
      "conver": 7521,
      "realizes": 7522,
      "Step": 7523,
      "Satur": 7524,
      "buddy": 7525,
      "cupcakes": 7526,
      "crystals": 7527,
      "Andre": 7528,
      "winners": 7529,
      "Freeze": 7530,
      "byes": 7531,
      "Nutty": 7532,
      "Swim": 7533,
      "',": 7534,
      "weapons": 7535,
      "sacks": 7536,
      "cheat": 7537,
      "custo": 7538,
      "serv": 7539,
      "packages": 7540,
      "coach": 7541,
      "goodbyes": 7542,
      "itely": 7543,
      "messes": 7544,
      "ching": 7545,
      "ening": 7546,
      "enem": 7547,
      "yumm": 7548,
      "enemies": 7549,
      "yummiest": 7550,
      "born": 7551,
      "chea": 7552,
      "returning": 7553,
      "Sil": 7554,
      "stomp": 7555,
      "admiration": 7556,
      "Jean": 7557,
      "App": 7558,
      "unable": 7559,
      "Floppy": 7560,
      "parted": 7561,
      "tment": 7562,
      "sadder": 7563,
      "cosy": 7564,
      "Joke": 7565,
      "brightest": 7566,
      "Match": 7567,
      "respon": 7568,
      "Life": 7569,
      "craft": 7570,
      "ugging": 7571,
      "diamonds": 7572,
      "response": 7573,
      "bride": 7574,
      "Janey": 7575,
      "Cook": 7576,
      "astic": 7577,
      "honking": 7578,
      "whoever": 7579,
      "opportun": 7580,
      "garbage": 7581,
      "Amber": 7582,
      "Yell": 7583,
      "ream": 7584,
      "sess": 7585,
      "caps": 7586,
      "prevented": 7587,
      "Rebe": 7588,
      "stretches": 7589,
      "whispering": 7590,
      "Saturday": 7591,
      "awful": 7592,
      "weighs": 7593,
      "Math": 7594,
      "Tammy": 7595,
      "awoke": 7596,
      "pout": 7597,
      "ya": 7598,
      "traps": 7599,
      "dragonfly": 7600,
      "journeys": 7601,
      "sincere": 7602,
      "Per": 7603,
      "stall": 7604,
      "Moppy": 7605,
      "Auntie": 7606,
      "spices": 7607,
      "reassured": 7608,
      "Brian": 7609,
      "argum": 7610,
      "poses": 7611,
      "examining": 7612,
      "beetles": 7613,
      "automobiles": 7614,
      "definitely": 7615,
      "Cic": 7616,
      "Gabby": 7617,
      "playdate": 7618,
      "stuffing": 7619,
      "visitors": 7620,
      "Cici": 7621,
      "Jumpy": 7622,
      "Pur": 7623,
      "washes": 7624,
      "erase": 7625,
      "Gra": 7626,
      "bomb": 7627,
      "wiser": 7628,
      "customer": 7629,
      "erk": 7630,
      "grily": 7631,
      "emma": 7632,
      "travelling": 7633,
      "bou": 7634,
      "honesty": 7635,
      "hairdress": 7636,
      "bouque": 7637,
      ",'": 7638,
      "Rat": 7639,
      "congratul": 7640,
      "decoration": 7641,
      "tumbled": 7642,
      "owns": 7643,
      "grum": 7644,
      "declar": 7645,
      "Sasha": 7646,
      "Tippy": 7647,
      "welcoming": 7648,
      "increasing": 7649,
      "offering": 7650,
      "Rebecca": 7651,
      "weal": 7652,
      "beanstalk": 7653,
      "Ashley": 7654,
      "Over": 7655,
      "type": 7656,
      "occas": 7657,
      "inspired": 7658,
      "Jelly": 7659,
      "loudest": 7660,
      "correctly": 7661,
      "Super": 7662,
      "Jas": 7663,
      "Prom": 7664,
      "flowing": 7665,
      "wrigg": 7666,
      "scrub": 7667,
      "Pine": 7668,
      "Helping": 7669,
      "whales": 7670,
      "campfire": 7671,
      "Im": 7672,
      "Birds": 7673,
      "Olivia": 7674,
      "declared": 7675,
      "Grac": 7676,
      "beaks": 7677,
      "Tyler": 7678,
      "thump": 7679,
      "custom": 7680,
      "athan": 7681,
      "cleared": 7682,
      "active": 7683,
      "Rufus": 7684,
      "cowboys": 7685,
      "Cloud": 7686,
      "nuzzled": 7687,
      "loss": 7688,
      "warmly": 7689,
      "prizes": 7690,
      "surrend": 7691,
      "rewards": 7692,
      "experien": 7693,
      "Gracie": 7694,
      "customers": 7695,
      "nch": 7696,
      "ots": 7697,
      "Animal": 7698,
      "leap": 7699,
      "comforting": 7700,
      "sirens": 7701,
      "Hopper": 7702,
      "fantastic": 7703,
      "Danger": 7704,
      "towns": 7705,
      "spoiling": 7706,
      "bends": 7707,
      "insisting": 7708,
      "recorder": 7709,
      "dollar": 7710,
      "trigger": 7711,
      "hairdresser": 7712,
      "pipes": 7713,
      "shares": 7714,
      "cleans": 7715,
      "storms": 7716,
      "supporting": 7717,
      "surrendered": 7718,
      "iri": 7719,
      "brake": 7720,
      "cular": 7721,
      "wrinkled": 7722,
      "chopped": 7723,
      "arranged": 7724,
      "moons": 7725,
      "scent": 7726,
      "troubles": 7727,
      "beaming": 7728,
      "Promise": 7729,
      "thanking": 7730,
      "snowy": 7731,
      "enjoyable": 7732,
      "scurry": 7733,
      "ooking": 7734,
      "environ": 7735,
      "streamers": 7736,
      "ana": 7737,
      "classm": 7738,
      "Wil": 7739,
      "wee": 7740,
      "shorts": 7741,
      "shooed": 7742,
      "environment": 7743,
      "bruises": 7744,
      "Nora": 7745,
      "grat": 7746,
      "nights": 7747,
      "nibb": 7748,
      "hisses": 7749,
      "uster": 7750,
      "steering": 7751,
      "Isa": 7752,
      "Ky": 7753,
      "Flora": 7754,
      "signing": 7755,
      "visits": 7756,
      "exercises": 7757,
      "Tiger": 7758,
      "Turn": 7759,
      "coug": 7760,
      "ooky": 7761,
      "dangers": 7762,
      "pilots": 7763,
      "cuddles": 7764,
      "Bert": 7765,
      "Tessa": 7766,
      "tin": 7767,
      "unfortunately": 7768,
      "squished": 7769,
      "peep": 7770,
      "distra": 7771,
      "Captain": 7772,
      "convinced": 7773,
      "lody": 7774,
      "applauding": 7775,
      "anny": 7776,
      "gratitude": 7777,
      "munk": 7778,
      "providing": 7779,
      "tickles": 7780,
      "badger": 7781,
      "earned": 7782,
      "Cally": 7783,
      "choosing": 7784,
      "responsib": 7785,
      "Berry": 7786,
      "Set": 7787,
      "Helen": 7788,
      "scram": 7789,
      "brains": 7790,
      "youngest": 7791,
      "activity": 7792,
      "nearest": 7793,
      "Gilly": 7794,
      "Spicy": 7795,
      "cope": 7796,
      "Boat": 7797,
      "exploded": 7798,
      "coughed": 7799,
      "ative": 7800,
      "hoy": 7801,
      "rewarding": 7802,
      "Com": 7803,
      "sunscreen": 7804,
      "wealth": 7805,
      "Pene": 7806,
      "Waff": 7807,
      "bond": 7808,
      "tapping": 7809,
      "baa": 7810,
      "rails": 7811,
      "Old": 7812,
      "ilities": 7813,
      "Peace": 7814,
      "annoying": 7815,
      "Microscope": 7816,
      "soapy": 7817,
      "Fre": 7818,
      "Gold": 7819,
      "appreciated": 7820,
      "tempted": 7821,
      "threads": 7822,
      "weighing": 7823,
      "emerged": 7824,
      "Ahoy": 7825,
      "heartbroken": 7826,
      "Catch": 7827,
      "laws": 7828,
      "ribbit": 7829,
      "congratulated": 7830,
      "Penelope": 7831,
      "Pegg": 7832,
      "crocodiles": 7833,
      "hooks": 7834,
      "attempt": 7835,
      "fet": 7836,
      "clerk": 7837,
      "bathed": 7838,
      "apolo": 7839,
      "Li": 7840,
      "range": 7841,
      "messed": 7842,
      "example": 7843,
      "hover": 7844,
      "blank": 7845,
      "ared": 7846,
      "caw": 7847,
      "guarding": 7848,
      "chipmunk": 7849,
      "Fortun": 7850,
      "Got": 7851,
      "Riri": 7852,
      "manager": 7853,
      "Buster": 7854,
      "bats": 7855,
      "Fortunately": 7856,
      "dee": 7857,
      "common": 7858,
      "beast": 7859,
      "erosity": 7860,
      "Felix": 7861,
      "experienced": 7862,
      "Fay": 7863,
      "tips": 7864,
      "Sand": 7865,
      "etah": 7866,
      "Andrew": 7867,
      "Barry": 7868,
      "erasers": 7869,
      "Squeak": 7870,
      "Yellow": 7871,
      "finishes": 7872,
      "Rub": 7873,
      "boards": 7874,
      "digs": 7875,
      "nibbled": 7876,
      "trotted": 7877,
      "Peggy": 7878,
      "kinder": 7879,
      "cheetah": 7880,
      "chews": 7881,
      "particularly": 7882,
      "target": 7883,
      "rips": 7884,
      "ketch": 7885,
      "faith": 7886,
      "forgiveness": 7887,
      "argument": 7888,
      "Candy": 7889,
      "Three": 7890,
      "bouquet": 7891,
      "observing": 7892,
      "fishes": 7893,
      "generosity": 7894,
      "Gill": 7895,
      "instantly": 7896,
      "cheaper": 7897,
      "cages": 7898,
      "Excitedly": 7899,
      "mischievous": 7900,
      "Puffy": 7901,
      "Zog": 7902,
      "dial": 7903,
      "foam": 7904,
      "stores": 7905,
      "meowing": 7906,
      "Lung": 7907,
      "Oxygen": 7908,
      "Won": 7909,
      "mered": 7910,
      "Matilda": 7911,
      "Circle": 7912,
      "Mila": 7913,
      "Pin": 7914,
      "abra": 7915,
      "Peep": 7916,
      "mattered": 7917,
      "passes": 7918,
      "teles": 7919,
      "Bobbie": 7920,
      "limp": 7921,
      "whir": 7922,
      "sleeps": 7923,
      "Sing": 7924,
      "breaths": 7925,
      "Har": 7926,
      "shopper": 7927,
      "mats": 7928,
      "gasps": 7929,
      "rumbling": 7930,
      "accomplished": 7931,
      "Otto": 7932,
      "Monster": 7933,
      "smartest": 7934,
      "scrambled": 7935,
      "telescope": 7936,
      "moat": 7937,
      "whined": 7938,
      "farmers": 7939,
      "fif": 7940,
      "forests": 7941,
      "syrup": 7942,
      "styles": 7943,
      "discoveries": 7944,
      "angrily": 7945,
      "vegg": 7946,
      "gardens": 7947,
      "otters": 7948,
      "masterpiece": 7949,
      "collapsed": 7950,
      "snapping": 7951,
      "experiences": 7952,
      "idey": 7953,
      "meaning": 7954,
      "affect": 7955,
      "medals": 7956,
      "lers": 7957,
      "types": 7958,
      "conqu": 7959,
      "imagin": 7960,
      "adabra": 7961,
      "hardest": 7962,
      "vests": 7963,
      "trans": 7964,
      "faint": 7965,
      "intent": 7966,
      "movements": 7967,
      "expression": 7968,
      "chilly": 7969,
      "bubbly": 7970,
      "scores": 7971,
      "Rainbow": 7972,
      "unfair": 7973,
      "webs": 7974,
      "Mus": 7975,
      "Race": 7976,
      "toothbrush": 7977,
      "extraordinary": 7978,
      "attitude": 7979,
      "behaviour": 7980,
      "acles": 7981,
      "sprout": 7982,
      "horri": 7983,
      "March": 7984,
      "Silver": 7985,
      "iscuit": 7986,
      "Cars": 7987,
      "bbling": 7988,
      "skirts": 7989,
      "Doll": 7990,
      "spears": 7991,
      "ketchup": 7992,
      "Bar": 7993,
      "sooner": 7994,
      "patches": 7995,
      "grasshopper": 7996,
      "chin": 7997,
      "Annabelle": 7998,
      "pokes": 7999,
      "Bonnie": 8000,
      "momma": 8001,
      "pleas": 8002,
      "afar": 8003,
      "erts": 8004,
      "Rosa": 8005,
      "Feel": 8006,
      "Melissa": 8007,
      "Brad": 8008,
      "dock": 8009,
      "shrunk": 8010,
      "marking": 8011,
      "thicker": 8012,
      "squeezes": 8013,
      "Vio": 8014,
      "chill": 8015,
      "iff": 8016,
      "court": 8017,
      "glittering": 8018,
      "slithered": 8019,
      "classmates": 8020,
      "Mam": 8021,
      "prickly": 8022,
      "consider": 8023,
      "Ac": 8024,
      "idy": 8025,
      "squin": 8026,
      "expert": 8027,
      "Mixie": 8028,
      "elect": 8029,
      "Spidey": 8030,
      "kneeling": 8031,
      "luckily": 8032,
      "Mole": 8033,
      "announced": 8034,
      "Tess": 8035,
      "deserved": 8036,
      "mony": 8037,
      "costs": 8038,
      "Fun": 8039,
      "jumper": 8040,
      "Riley": 8041,
      "wolves": 8042,
      "thieves": 8043,
      "zigzags": 8044,
      "acts": 8045,
      "concer": 8046,
      "Ed": 8047,
      "aret": 8048,
      "vast": 8049,
      "squeaky": 8050,
      "thumbs": 8051,
      "shh": 8052,
      "bluebird": 8053,
      "dia": 8054,
      "idence": 8055,
      "Inky": 8056,
      "cheating": 8057,
      "Park": 8058,
      "raking": 8059,
      "trading": 8060,
      "avi": 8061,
      "ability": 8062,
      "Chip": 8063,
      "explaining": 8064,
      "Paula": 8065,
      "aven": 8066,
      "Jose": 8067,
      "ounce": 8068,
      "tidied": 8069,
      "Pru": 8070,
      "lunchtime": 8071,
      "seeking": 8072,
      "visible": 8073,
      "knit": 8074,
      "Waffle": 8075,
      "spilling": 8076,
      "rin": 8077,
      "hatch": 8078,
      "cloths": 8079,
      "desserts": 8080,
      "peacock": 8081,
      "Wonder": 8082,
      "Abra": 8083,
      "admit": 8084,
      "beating": 8085,
      "messages": 8086,
      "zips": 8087,
      "windowsill": 8088,
      "Smoke": 8089,
      "actor": 8090,
      "Tooth": 8091,
      "Carla": 8092,
      "Apr": 8093,
      "snar": 8094,
      "winding": 8095,
      "culp": 8096,
      "teen": 8097,
      "leans": 8098,
      "April": 8099,
      "Val": 8100,
      "hissing": 8101,
      "shallow": 8102,
      "watermelon": 8103,
      "flashing": 8104,
      "pressing": 8105,
      "cocoon": 8106,
      "Steven": 8107,
      "burger": 8108,
      "discouraged": 8109,
      "compete": 8110,
      "Slinky": 8111,
      "positive": 8112,
      "Ze": 8113,
      "woodcutter": 8114,
      "dripped": 8115,
      "Books": 8116,
      "Ratty": 8117,
      "disagreeing": 8118,
      "glimmering": 8119,
      "tidying": 8120,
      "trusts": 8121,
      "kangaroos": 8122,
      "veggies": 8123,
      "Tip": 8124,
      "storing": 8125,
      "Woolly": 8126,
      "landing": 8127,
      "cops": 8128,
      "fade": 8129,
      "drift": 8130,
      "teapot": 8131,
      "Bru": 8132,
      "Sit": 8133,
      "Beef": 8134,
      "heels": 8135,
      "Drink": 8136,
      "apology": 8137,
      "ides": 8138,
      "Ce": 8139,
      "Glow": 8140,
      "Ravi": 8141,
      "worst": 8142,
      "sleds": 8143,
      "papa": 8144,
      "comets": 8145,
      "whel": 8146,
      "slee": 8147,
      "officers": 8148,
      "situations": 8149,
      "conversation": 8150,
      "ying": 8151,
      "keepers": 8152,
      "Lemon": 8153,
      "suns": 8154,
      "foreshadow": 8155,
      "Liza": 8156,
      "Drag": 8157,
      "”,": 8158,
      "overwhel": 8159,
      "pizzas": 8160,
      "miller": 8161,
      "granddaughter": 8162,
      "structures": 8163,
      "scurrying": 8164,
      "hoot": 8165,
      "foggy": 8166,
      "Faye": 8167,
      "Mona": 8168,
      "rhino": 8169,
      "Quickly": 8170,
      "cubs": 8171,
      "Flopsy": 8172,
      "opportunity": 8173,
      "Tu": 8174,
      "snorted": 8175,
      "differences": 8176,
      "bino": 8177,
      "quacking": 8178,
      "Immediately": 8179,
      "Pink": 8180,
      "heaven": 8181,
      "approach": 8182,
      "gulp": 8183,
      "levers": 8184,
      "Whose": 8185,
      "pos": 8186,
      "acy": 8187,
      "cracker": 8188,
      "Animals": 8189,
      "Ever": 8190,
      "Orange": 8191
    },
    "merges": [
      [
        "h",
        "e"
      ],
      [
        "a",
        "n"
      ],
      [
        "t",
        "he"
      ],
      [
        "e",
        "d"
      ],
      [
        "t",
        "o"
      ],
      [
        "an",
        "d"
      ],
      [
        "i",
        "n"
      ],
      [
        "r",
        "e"
      ],
      [
        "i",
        "t"
      ],
      [
        "w",
        "a"
      ],
      [
        "o",
        "u"
      ],
      [
        "e",
        "n"
      ],
      [
        "h",
        "a"
      ],
      [
        "T",
        "he"
      ],
      [
        "e",
        "r"
      ],
      [
        "wa",
        "s"
      ],
      [
        "a",
        "y"
      ],
      [
        "o",
        "m"
      ],
      [
        "i",
        "s"
      ],
      [
        "a",
        "r"
      ],
      [
        "o",
        "n"
      ],
      [
        "i",
        "m"
      ],
      [
        "s",
        "a"
      ],
      [
        "i",
        "d"
      ],
      [
        "l",
        "l"
      ],
      [
        "l",
        "e"
      ],
      [
        "in",
        "g"
      ],
      [
        "en",
        "d"
      ],
      [
        "s",
        "t"
      ],
      [
        "o",
        "t"
      ],
      [
        "a",
        "m"
      ],
      [
        "o",
        "r"
      ],
      [
        "i",
        "r"
      ],
      [
        "o",
        "f"
      ],
      [
        "n",
        "e"
      ],
      [
        "The",
        "y"
      ],
      [
        "p",
        "l"
      ],
      [
        "i",
        "g"
      ],
      [
        "a",
        "t"
      ],
      [
        "H",
        "e"
      ],
      [
        "b",
        "e"
      ],
      [
        "i",
        "l"
      ],
      [
        "l",
        "o"
      ],
      [
        "a",
        "ll"
      ],
      [
        "r",
        "i"
      ],
      [
        "v",
        "er"
      ],
      [
        "h",
        "is"
      ],
      [
        "d",
        "ay"
      ],
      [
        "u",
        "t"
      ],
      [
        "pl",
        "ay"
      ],
      [
        "sa",
        "id"
      ],
      [
        "T",
        "im"
      ],
      [
        "it",
        "h"
      ],
      [
        "s",
        "e"
      ],
      [
        "w",
        "ith"
      ],
      [
        "p",
        "p"
      ],
      [
        "he",
        "r"
      ],
      [
        "k",
        "ed"
      ],
      [
        "o",
        "w"
      ],
      [
        "c",
        "e"
      ],
      [
        "u",
        "n"
      ],
      [
        "k",
        "e"
      ],
      [
        "S",
        "he"
      ],
      [
        "ha",
        "t"
      ],
      [
        "l",
        "d"
      ],
      [
        "t",
        "h"
      ],
      [
        "b",
        "ig"
      ],
      [
        "y",
        "ou"
      ],
      [
        "e",
        "x"
      ],
      [
        "ver",
        "y"
      ],
      [
        "t",
        "ed"
      ],
      [
        "v",
        "e"
      ],
      [
        "l",
        "i"
      ],
      [
        "c",
        "k"
      ],
      [
        "w",
        "e"
      ],
      [
        "ha",
        "pp"
      ],
      [
        "ri",
        "end"
      ],
      [
        "f",
        "riend"
      ],
      [
        "u",
        "p"
      ],
      [
        "il",
        "y"
      ],
      [
        "the",
        "y"
      ],
      [
        "ha",
        "d"
      ],
      [
        "a",
        "d"
      ],
      [
        "of",
        "t"
      ],
      [
        "n",
        "ot"
      ],
      [
        "w",
        "an"
      ],
      [
        "g",
        "e"
      ],
      [
        "ex",
        "t"
      ],
      [
        "it",
        "t"
      ],
      [
        "<",
        "|"
      ],
      [
        "|",
        ">"
      ],
      [
        "end",
        "oft"
      ],
      [
        "endoft",
        "ext"
      ],
      [
        "om",
        "e"
      ],
      [
        "the",
        "r"
      ],
      [
        "d",
        "o"
      ],
      [
        "n",
        "d"
      ],
      [
        "b",
        "o"
      ],
      [
        "a",
        "l"
      ],
      [
        "happ",
        "y"
      ],
      [
        "c",
        "h"
      ],
      [
        "L",
        "ily"
      ],
      [
        "en",
        "t"
      ],
      [
        "f",
        "or"
      ],
      [
        "t",
        "hat"
      ],
      [
        "sa",
        "w"
      ],
      [
        "s",
        "he"
      ],
      [
        "O",
        "ne"
      ],
      [
        "ou",
        "ld"
      ],
      [
        "m",
        "om"
      ],
      [
        "itt",
        "le"
      ],
      [
        "l",
        "ittle"
      ],
      [
        "im",
        "e"
      ],
      [
        "a",
        "s"
      ],
      [
        "T",
        "om"
      ],
      [
        "s",
        "o"
      ],
      [
        "t",
        "ime"
      ],
      [
        "r",
        "o"
      ],
      [
        "f",
        "e"
      ],
      [
        "n",
        "am"
      ],
      [
        ".",
        "\""
      ],
      [
        "ou",
        "nd"
      ],
      [
        "e",
        "s"
      ],
      [
        "the",
        "re"
      ],
      [
        "o",
        "o"
      ],
      [
        "nam",
        "ed"
      ],
      [
        "s",
        "m"
      ],
      [
        "we",
        "re"
      ],
      [
        "I",
        "t"
      ],
      [
        "wan",
        "ted"
      ],
      [
        "b",
        "ut"
      ],
      [
        "friend",
        "s"
      ],
      [
        "v",
        "ed"
      ],
      [
        "!",
        "\""
      ],
      [
        "h",
        "t"
      ],
      [
        "ir",
        "d"
      ],
      [
        "s",
        "h"
      ],
      [
        "r",
        "y"
      ],
      [
        "a",
        "re"
      ],
      [
        "b",
        "ird"
      ],
      [
        "to",
        "o"
      ],
      [
        "r",
        "a"
      ],
      [
        "O",
        "n"
      ],
      [
        "m",
        "y"
      ],
      [
        "ou",
        "t"
      ],
      [
        "u",
        "g"
      ],
      [
        "a",
        "ke"
      ],
      [
        "id",
        "e"
      ],
      [
        "l",
        "p"
      ],
      [
        "t",
        "er"
      ],
      [
        "w",
        "ent"
      ],
      [
        "On",
        "ce"
      ],
      [
        "c",
        "ar"
      ],
      [
        "lo",
        "o"
      ],
      [
        "u",
        "e"
      ],
      [
        "he",
        "lp"
      ],
      [
        "up",
        "on"
      ],
      [
        "th",
        "ing"
      ],
      [
        "in",
        "d"
      ],
      [
        "f",
        "un"
      ],
      [
        "to",
        "y"
      ],
      [
        "i",
        "ll"
      ],
      [
        "am",
        "e"
      ],
      [
        "d",
        "id"
      ],
      [
        "l",
        "y"
      ],
      [
        "ge",
        "ther"
      ],
      [
        "p",
        "e"
      ],
      [
        "u",
        "r"
      ],
      [
        "wa",
        "y"
      ],
      [
        "s",
        "ome"
      ],
      [
        "on",
        "e"
      ],
      [
        "c",
        "at"
      ],
      [
        "m",
        "e"
      ],
      [
        "to",
        "gether"
      ],
      [
        "o",
        "re"
      ],
      [
        "t",
        "re"
      ],
      [
        "a",
        "ck"
      ],
      [
        "a",
        "g"
      ],
      [
        "ne",
        "w"
      ],
      [
        "c",
        "an"
      ],
      [
        "do",
        "g"
      ],
      [
        "c",
        "ame"
      ],
      [
        "c",
        "ould"
      ],
      [
        "oo",
        "d"
      ],
      [
        "the",
        "ir"
      ],
      [
        "b",
        "all"
      ],
      [
        "i",
        "c"
      ],
      [
        "p",
        "ar"
      ],
      [
        "g",
        "ir"
      ],
      [
        "play",
        "ed"
      ],
      [
        "h",
        "im"
      ],
      [
        "B",
        "ut"
      ],
      [
        "?",
        "\""
      ],
      [
        "gir",
        "l"
      ],
      [
        "g",
        "o"
      ],
      [
        "f",
        "u"
      ],
      [
        "h",
        "o"
      ],
      [
        "m",
        "an"
      ],
      [
        "the",
        "m"
      ],
      [
        "he",
        "n"
      ],
      [
        "u",
        "m"
      ],
      [
        "a",
        "x"
      ],
      [
        "sa",
        "d"
      ],
      [
        "S",
        "ue"
      ],
      [
        "r",
        "om"
      ],
      [
        "bo",
        "y"
      ],
      [
        "ha",
        "ve"
      ],
      [
        "tre",
        "e"
      ],
      [
        "M",
        "ax"
      ],
      [
        "lo",
        "ved"
      ],
      [
        "loo",
        "ked"
      ],
      [
        "ou",
        "g"
      ],
      [
        "he",
        "d"
      ],
      [
        "f",
        "ound"
      ],
      [
        "st",
        "ar"
      ],
      [
        "a",
        "b"
      ],
      [
        "s",
        "ide"
      ],
      [
        "o",
        "ther"
      ],
      [
        "b",
        "ack"
      ],
      [
        "B",
        "en"
      ],
      [
        "l",
        "a"
      ],
      [
        "l",
        "t"
      ],
      [
        "par",
        "k"
      ],
      [
        "li",
        "ke"
      ],
      [
        "a",
        "in"
      ],
      [
        "S",
        "am"
      ],
      [
        "fu",
        "l"
      ],
      [
        "ow",
        "n"
      ],
      [
        "d",
        "e"
      ],
      [
        "o",
        "p"
      ],
      [
        "p",
        "r"
      ],
      [
        "e",
        "t"
      ],
      [
        "on",
        "g"
      ],
      [
        "ig",
        "ht"
      ],
      [
        "n",
        "o"
      ],
      [
        "p",
        "ot"
      ],
      [
        "f",
        "a"
      ],
      [
        "r",
        "an"
      ],
      [
        "li",
        "ked"
      ],
      [
        "w",
        "ould"
      ],
      [
        "s",
        "to"
      ],
      [
        "c",
        "o"
      ],
      [
        "m",
        "ake"
      ],
      [
        "fe",
        "lt"
      ],
      [
        "Y",
        "ou"
      ],
      [
        "se",
        "e"
      ],
      [
        "n",
        "ow"
      ],
      [
        "wan",
        "t"
      ],
      [
        "as",
        "ked"
      ],
      [
        "ou",
        "se"
      ],
      [
        "ar",
        "d"
      ],
      [
        "star",
        "ted"
      ],
      [
        "c",
        "a"
      ],
      [
        "oug",
        "ht"
      ],
      [
        "il",
        "ed"
      ],
      [
        "i",
        "ce"
      ],
      [
        "g",
        "ood"
      ],
      [
        "sm",
        "all"
      ],
      [
        "w",
        "or"
      ],
      [
        "sm",
        "iled"
      ],
      [
        "m",
        "ore"
      ],
      [
        "s",
        "ay"
      ],
      [
        "ri",
        "ed"
      ],
      [
        "m",
        "ad"
      ],
      [
        "s",
        "car"
      ],
      [
        "r",
        "ed"
      ],
      [
        "g",
        "r"
      ],
      [
        "S",
        "pot"
      ],
      [
        "p",
        "ut"
      ],
      [
        "k",
        "ing"
      ],
      [
        "f",
        "ind"
      ],
      [
        "M",
        "om"
      ],
      [
        "h",
        "ome"
      ],
      [
        "t",
        "y"
      ],
      [
        "a",
        "way"
      ],
      [
        "w",
        "hat"
      ],
      [
        "some",
        "thing"
      ],
      [
        "f",
        "rom"
      ],
      [
        "mad",
        "e"
      ],
      [
        "u",
        "c"
      ],
      [
        "th",
        "ought"
      ],
      [
        "en",
        "ed"
      ],
      [
        "s",
        "ha"
      ],
      [
        "play",
        "ing"
      ],
      [
        "i",
        "a"
      ],
      [
        "wa",
        "l"
      ],
      [
        "e",
        "very"
      ],
      [
        "a",
        "ch"
      ],
      [
        "m",
        "u"
      ],
      [
        "ar",
        "n"
      ],
      [
        "M",
        "ia"
      ],
      [
        "i",
        "le"
      ],
      [
        "bo",
        "x"
      ],
      [
        "ag",
        "ain"
      ],
      [
        "h",
        "ouse"
      ],
      [
        "la",
        "ug"
      ],
      [
        "re",
        "t"
      ],
      [
        "d",
        "own"
      ],
      [
        "u",
        "se"
      ],
      [
        "too",
        "k"
      ],
      [
        "scar",
        "ed"
      ],
      [
        "le",
        "arn"
      ],
      [
        "n",
        "y"
      ],
      [
        "u",
        "re"
      ],
      [
        "toy",
        "s"
      ],
      [
        "ge",
        "t"
      ],
      [
        "s",
        "s"
      ],
      [
        "w",
        "ill"
      ],
      [
        "g",
        "ot"
      ],
      [
        "d",
        "d"
      ],
      [
        "ar",
        "ound"
      ],
      [
        "thing",
        "s"
      ],
      [
        "is",
        "h"
      ],
      [
        "you",
        "r"
      ],
      [
        "ou",
        "d"
      ],
      [
        "li",
        "ved"
      ],
      [
        "e",
        "l"
      ],
      [
        "i",
        "ck"
      ],
      [
        "lo",
        "w"
      ],
      [
        "l",
        "ot"
      ],
      [
        "a",
        "ve"
      ],
      [
        "pe",
        "c"
      ],
      [
        "the",
        "n"
      ],
      [
        "s",
        "un"
      ],
      [
        "e",
        "p"
      ],
      [
        "S",
        "o"
      ],
      [
        "d",
        "er"
      ],
      [
        ",",
        "\""
      ],
      [
        "w",
        "hen"
      ],
      [
        "o",
        "b"
      ],
      [
        "pp",
        "ed"
      ],
      [
        "i",
        "e"
      ],
      [
        "n",
        "a"
      ],
      [
        "b",
        "ot"
      ],
      [
        "r",
        "u"
      ],
      [
        "L",
        "uc"
      ],
      [
        "Luc",
        "y"
      ],
      [
        "i",
        "f"
      ],
      [
        "t",
        "e"
      ],
      [
        "an",
        "t"
      ],
      [
        "ro",
        "om"
      ],
      [
        "t",
        "ried"
      ],
      [
        "k",
        "now"
      ],
      [
        "say",
        "s"
      ],
      [
        "um",
        "p"
      ],
      [
        "it",
        "ed"
      ],
      [
        "w",
        "ho"
      ],
      [
        "an",
        "y"
      ],
      [
        "man",
        "y"
      ],
      [
        "p",
        "ic"
      ],
      [
        "ab",
        "out"
      ],
      [
        "u",
        "s"
      ],
      [
        "c",
        "are"
      ],
      [
        "p",
        "ret"
      ],
      [
        "de",
        "c"
      ],
      [
        "W",
        "e"
      ],
      [
        "b",
        "y"
      ],
      [
        "k",
        "new"
      ],
      [
        "ou",
        "s"
      ],
      [
        "is",
        "e"
      ],
      [
        "all",
        "y"
      ],
      [
        "p",
        "u"
      ],
      [
        "is",
        "t"
      ],
      [
        "way",
        "s"
      ],
      [
        "q",
        "u"
      ],
      [
        "learn",
        "ed"
      ],
      [
        "wa",
        "ter"
      ],
      [
        "at",
        "e"
      ],
      [
        "an",
        "k"
      ],
      [
        "A",
        "nd"
      ],
      [
        "f",
        "ter"
      ],
      [
        "be",
        "came"
      ],
      [
        "be",
        "st"
      ],
      [
        "i",
        "ve"
      ],
      [
        "u",
        "st"
      ],
      [
        "g",
        "re"
      ],
      [
        "ne",
        "x"
      ],
      [
        "l",
        "ong"
      ],
      [
        "b",
        "l"
      ],
      [
        "ex",
        "c"
      ],
      [
        "ca",
        "use"
      ],
      [
        "out",
        "side"
      ],
      [
        "laug",
        "hed"
      ],
      [
        "m",
        "o"
      ],
      [
        "loo",
        "k"
      ],
      [
        "al",
        "ways"
      ],
      [
        "he",
        "re"
      ],
      [
        "dec",
        "id"
      ],
      [
        "sh",
        "ow"
      ],
      [
        "e",
        "at"
      ],
      [
        "it",
        "e"
      ],
      [
        "decid",
        "ed"
      ],
      [
        "be",
        "cause"
      ],
      [
        "f",
        "ore"
      ],
      [
        "c",
        "l"
      ],
      [
        "in",
        "to"
      ],
      [
        "p",
        "o"
      ],
      [
        "c",
        "le"
      ],
      [
        "an",
        "g"
      ],
      [
        "L",
        "et"
      ],
      [
        "j",
        "ump"
      ],
      [
        "bot",
        "h"
      ],
      [
        "The",
        "n"
      ],
      [
        "r",
        "un"
      ],
      [
        "h",
        "ug"
      ],
      [
        "d",
        "ad"
      ],
      [
        "er",
        "s"
      ],
      [
        "m",
        "a"
      ],
      [
        "o",
        "k"
      ],
      [
        "A",
        "n"
      ],
      [
        "fa",
        "st"
      ],
      [
        "s",
        "ur"
      ],
      [
        "c",
        "lo"
      ],
      [
        "W",
        "hen"
      ],
      [
        "t",
        "his"
      ],
      [
        "exc",
        "ited"
      ],
      [
        "n",
        "ice"
      ],
      [
        "fe",
        "el"
      ],
      [
        "Y",
        "es"
      ],
      [
        "w",
        "h"
      ],
      [
        "s",
        "or"
      ],
      [
        "b",
        "b"
      ],
      [
        "p",
        "a"
      ],
      [
        "o",
        "ld"
      ],
      [
        "b",
        "u"
      ],
      [
        "in",
        "k"
      ],
      [
        "to",
        "ld"
      ],
      [
        "s",
        "k"
      ],
      [
        "c",
        "ome"
      ],
      [
        "B",
        "ob"
      ],
      [
        "b",
        "r"
      ],
      [
        "in",
        "side"
      ],
      [
        "f",
        "ish"
      ],
      [
        "sur",
        "pr"
      ],
      [
        "H",
        "is"
      ],
      [
        "in",
        "y"
      ],
      [
        "oo",
        "k"
      ],
      [
        "pret",
        "ty"
      ],
      [
        "f",
        "ly"
      ],
      [
        "ar",
        "a"
      ],
      [
        "g",
        "ave"
      ],
      [
        "t",
        "ake"
      ],
      [
        "t",
        "a"
      ],
      [
        "ou",
        "r"
      ],
      [
        "le",
        "t"
      ],
      [
        "e",
        "ach"
      ],
      [
        "j",
        "o"
      ],
      [
        "mu",
        "ch"
      ],
      [
        "it",
        "s"
      ],
      [
        "h",
        "ow"
      ],
      [
        "An",
        "na"
      ],
      [
        "le",
        "w"
      ],
      [
        "un",
        "der"
      ],
      [
        "im",
        "al"
      ],
      [
        "an",
        "imal"
      ],
      [
        "A",
        "my"
      ],
      [
        "u",
        "dd"
      ],
      [
        "ne",
        "ed"
      ],
      [
        "th",
        "an"
      ],
      [
        "v",
        "en"
      ],
      [
        "ab",
        "le"
      ],
      [
        "f",
        "low"
      ],
      [
        "a",
        "c"
      ],
      [
        "A",
        "s"
      ],
      [
        "sor",
        "ry"
      ],
      [
        "ha",
        "r"
      ],
      [
        "s",
        "w"
      ],
      [
        "e",
        "ll"
      ],
      [
        "u",
        "ck"
      ],
      [
        "C",
        "an"
      ],
      [
        "T",
        "h"
      ],
      [
        "S",
        "ara"
      ],
      [
        "g",
        "ed"
      ],
      [
        "is",
        "ed"
      ],
      [
        "ro",
        "ck"
      ],
      [
        "d",
        "re"
      ],
      [
        "Th",
        "ank"
      ],
      [
        "wal",
        "ked"
      ],
      [
        "ur",
        "t"
      ],
      [
        "be",
        "ar"
      ],
      [
        "re",
        "ad"
      ],
      [
        "h",
        "and"
      ],
      [
        "le",
        "a"
      ],
      [
        "ur",
        "n"
      ],
      [
        "k",
        "ind"
      ],
      [
        "ra",
        "in"
      ],
      [
        "t",
        "ry"
      ],
      [
        "j",
        "ust"
      ],
      [
        "happ",
        "ened"
      ],
      [
        "st",
        "r"
      ],
      [
        "H",
        "er"
      ],
      [
        "l",
        "ist"
      ],
      [
        "f",
        "ood"
      ],
      [
        "be",
        "t"
      ],
      [
        "did",
        "n"
      ],
      [
        "ig",
        "h"
      ],
      [
        "f",
        "i"
      ],
      [
        "wa",
        "r"
      ],
      [
        "animal",
        "s"
      ],
      [
        "s",
        "pec"
      ],
      [
        "I",
        "n"
      ],
      [
        "wa",
        "t"
      ],
      [
        "ne",
        "ar"
      ],
      [
        "sk",
        "y"
      ],
      [
        "in",
        "e"
      ],
      [
        "c",
        "re"
      ],
      [
        "v",
        "ing"
      ],
      [
        "b",
        "ug"
      ],
      [
        "F",
        "rom"
      ],
      [
        "ide",
        "a"
      ],
      [
        "bet",
        "ter"
      ],
      [
        "he",
        "ard"
      ],
      [
        "ne",
        "ver"
      ],
      [
        "ke",
        "t"
      ],
      [
        "c",
        "he"
      ],
      [
        "t",
        "w"
      ],
      [
        "b",
        "ro"
      ],
      [
        "b",
        "ed"
      ],
      [
        "pl",
        "a"
      ],
      [
        "f",
        "f"
      ],
      [
        "t",
        "al"
      ],
      [
        "lo",
        "ve"
      ],
      [
        "n",
        "t"
      ],
      [
        "s",
        "p"
      ],
      [
        "care",
        "ful"
      ],
      [
        "b",
        "er"
      ],
      [
        "sha",
        "re"
      ],
      [
        "to",
        "w"
      ],
      [
        "co",
        "l"
      ],
      [
        "i",
        "al"
      ],
      [
        "f",
        "lew"
      ],
      [
        "any",
        "more"
      ],
      [
        "c",
        "om"
      ],
      [
        "spec",
        "ial"
      ],
      [
        "i",
        "on"
      ],
      [
        "lot",
        "s"
      ],
      [
        "l",
        "f"
      ],
      [
        "p",
        "er"
      ],
      [
        "w",
        "here"
      ],
      [
        "d",
        "on"
      ],
      [
        "w",
        "ind"
      ],
      [
        "g",
        "ive"
      ],
      [
        "bo",
        "ok"
      ],
      [
        "E",
        "very"
      ],
      [
        "sa",
        "fe"
      ],
      [
        "l",
        "ad"
      ],
      [
        "cle",
        "an"
      ],
      [
        "T",
        "hat"
      ],
      [
        "gr",
        "ound"
      ],
      [
        "e",
        "ven"
      ],
      [
        "op",
        "le"
      ],
      [
        "m",
        "ag"
      ],
      [
        "o",
        "ver"
      ],
      [
        "c",
        "ake"
      ],
      [
        "as",
        "s"
      ],
      [
        "sh",
        "iny"
      ],
      [
        "udd",
        "en"
      ],
      [
        "t",
        "urn"
      ],
      [
        "f",
        "am"
      ],
      [
        "b",
        "ad"
      ],
      [
        "a",
        "fter"
      ],
      [
        "D",
        "o"
      ],
      [
        "pe",
        "ople"
      ],
      [
        "udden",
        "ly"
      ],
      [
        "pr",
        "oud"
      ],
      [
        "e",
        "ver"
      ],
      [
        "ra",
        "bb"
      ],
      [
        "do",
        "or"
      ],
      [
        "surpr",
        "ised"
      ],
      [
        "h",
        "igh"
      ],
      [
        "h",
        "urt"
      ],
      [
        "pec",
        "ted"
      ],
      [
        "g",
        "ard"
      ],
      [
        "gard",
        "en"
      ],
      [
        "op",
        "ened"
      ],
      [
        "pic",
        "ked"
      ],
      [
        "l",
        "oud"
      ],
      [
        "cl",
        "im"
      ],
      [
        "f",
        "ar"
      ],
      [
        "nex",
        "pected"
      ],
      [
        "u",
        "nexpected"
      ],
      [
        "f",
        "o"
      ],
      [
        "be",
        "a"
      ],
      [
        "har",
        "d"
      ],
      [
        "a",
        "pp"
      ],
      [
        "W",
        "hat"
      ],
      [
        "pla",
        "ce"
      ],
      [
        "un",
[...]
